{
  "version": "1.0",
  "truncation": null,
  "padding": null,
  "added_tokens": [
    {
      "id": 0,
      "content": "[UNK]",
      "single_word": false,
      "lstrip": false,
      "rstrip": false,
      "normalized": false,
      "special": true
    },
    {
      "id": 1,
      "content": "[CLS]",
      "single_word": false,
      "lstrip": false,
      "rstrip": false,
      "normalized": false,
      "special": true
    },
    {
      "id": 2,
      "content": "[SEP]",
      "single_word": false,
      "lstrip": false,
      "rstrip": false,
      "normalized": false,
      "special": true
    },
    {
      "id": 3,
      "content": "[PAD]",
      "single_word": false,
      "lstrip": false,
      "rstrip": false,
      "normalized": false,
      "special": true
    },
    {
      "id": 4,
      "content": "[MASK]",
      "single_word": false,
      "lstrip": false,
      "rstrip": false,
      "normalized": false,
      "special": true
    }
  ],
  "normalizer": null,
  "pre_tokenizer": {
    "type": "Whitespace"
  },
  "post_processor": null,
  "decoder": null,
  "model": {
    "type": "BPE",
    "dropout": null,
    "unk_token": "[UNK]",
    "continuing_subword_prefix": null,
    "end_of_word_suffix": null,
    "fuse_unk": false,
    "byte_fallback": false,
    "vocab": {
      "[UNK]": 0,
      "[CLS]": 1,
      "[SEP]": 2,
      "[PAD]": 3,
      "[MASK]": 4,
      "\u0000": 5,
      "\u0001": 6,
      "\u0003": 7,
      "\u0004": 8,
      "\u0005": 9,
      "\u0007": 10,
      "\b": 11,
      "\u000f": 12,
      "\u0010": 13,
      "\u0014": 14,
      "\u0015": 15,
      "\u0016": 16,
      "\u001a": 17,
      "\u001c": 18,
      "\u001d": 19,
      "\u001e": 20,
      "\u001f": 21,
      "!": 22,
      "\"": 23,
      "#": 24,
      "$": 25,
      "%": 26,
      "&": 27,
      "'": 28,
      "(": 29,
      ")": 30,
      "*": 31,
      "+": 32,
      ",": 33,
      "-": 34,
      ".": 35,
      "/": 36,
      "0": 37,
      "1": 38,
      "2": 39,
      "3": 40,
      "4": 41,
      "5": 42,
      "6": 43,
      "7": 44,
      "8": 45,
      "9": 46,
      ":": 47,
      ";": 48,
      "<": 49,
      "=": 50,
      ">": 51,
      "?": 52,
      "@": 53,
      "A": 54,
      "B": 55,
      "C": 56,
      "D": 57,
      "E": 58,
      "F": 59,
      "G": 60,
      "H": 61,
      "I": 62,
      "J": 63,
      "K": 64,
      "L": 65,
      "M": 66,
      "N": 67,
      "O": 68,
      "P": 69,
      "Q": 70,
      "R": 71,
      "S": 72,
      "T": 73,
      "U": 74,
      "V": 75,
      "W": 76,
      "X": 77,
      "Y": 78,
      "Z": 79,
      "[": 80,
      "\\": 81,
      "]": 82,
      "^": 83,
      "_": 84,
      "`": 85,
      "a": 86,
      "b": 87,
      "c": 88,
      "d": 89,
      "e": 90,
      "f": 91,
      "g": 92,
      "h": 93,
      "i": 94,
      "j": 95,
      "k": 96,
      "l": 97,
      "m": 98,
      "n": 99,
      "o": 100,
      "p": 101,
      "q": 102,
      "r": 103,
      "s": 104,
      "t": 105,
      "u": 106,
      "v": 107,
      "w": 108,
      "x": 109,
      "y": 110,
      "z": 111,
      "{": 112,
      "|": 113,
      "}": 114,
      "~": 115,
      "": 116,
      "": 117,
      "": 118,
      "": 119,
      "": 120,
      "": 121,
      "": 122,
      "": 123,
      "": 124,
      "": 125,
      "": 126,
      "": 127,
      "": 128,
      "": 129,
      "": 130,
      "": 131,
      "": 132,
      "": 133,
      "": 134,
      "": 135,
      "": 136,
      "": 137,
      "": 138,
      "": 139,
      "": 140,
      "": 141,
      "": 142,
      "": 143,
      "": 144,
      "": 145,
      "": 146,
      "¡": 147,
      "¢": 148,
      "£": 149,
      "¤": 150,
      "¥": 151,
      "¦": 152,
      "§": 153,
      "¨": 154,
      "©": 155,
      "ª": 156,
      "«": 157,
      "¬": 158,
      "­": 159,
      "®": 160,
      "¯": 161,
      "°": 162,
      "±": 163,
      "²": 164,
      "³": 165,
      "´": 166,
      "µ": 167,
      "¶": 168,
      "·": 169,
      "¸": 170,
      "¹": 171,
      "º": 172,
      "»": 173,
      "¼": 174,
      "½": 175,
      "¾": 176,
      "¿": 177,
      "À": 178,
      "Á": 179,
      "Â": 180,
      "Ã": 181,
      "Ä": 182,
      "Å": 183,
      "Æ": 184,
      "Ç": 185,
      "È": 186,
      "É": 187,
      "Ê": 188,
      "Ë": 189,
      "Ì": 190,
      "Í": 191,
      "Î": 192,
      "Ï": 193,
      "Ð": 194,
      "Ñ": 195,
      "Ò": 196,
      "Ó": 197,
      "Ô": 198,
      "Õ": 199,
      "Ö": 200,
      "×": 201,
      "Ø": 202,
      "Ù": 203,
      "Ú": 204,
      "Û": 205,
      "Ü": 206,
      "Ý": 207,
      "Þ": 208,
      "ß": 209,
      "à": 210,
      "á": 211,
      "â": 212,
      "ã": 213,
      "ä": 214,
      "å": 215,
      "æ": 216,
      "ç": 217,
      "è": 218,
      "é": 219,
      "ê": 220,
      "ë": 221,
      "ì": 222,
      "í": 223,
      "î": 224,
      "ï": 225,
      "ð": 226,
      "ñ": 227,
      "ò": 228,
      "ó": 229,
      "ô": 230,
      "õ": 231,
      "ö": 232,
      "÷": 233,
      "ø": 234,
      "ù": 235,
      "ú": 236,
      "û": 237,
      "ü": 238,
      "ý": 239,
      "þ": 240,
      "ÿ": 241,
      "Ā": 242,
      "ā": 243,
      "Ă": 244,
      "ă": 245,
      "ą": 246,
      "Ć": 247,
      "ć": 248,
      "Ĉ": 249,
      "ĉ": 250,
      "ċ": 251,
      "Č": 252,
      "č": 253,
      "ď": 254,
      "đ": 255,
      "Ē": 256,
      "ē": 257,
      "Ĕ": 258,
      "ĕ": 259,
      "Ė": 260,
      "ė": 261,
      "Ę": 262,
      "ę": 263,
      "Ě": 264,
      "ě": 265,
      "Ĝ": 266,
      "ĝ": 267,
      "ğ": 268,
      "Ġ": 269,
      "ġ": 270,
      "Ĥ": 271,
      "Ħ": 272,
      "ħ": 273,
      "Ĩ": 274,
      "ĩ": 275,
      "Ī": 276,
      "ī": 277,
      "Ĭ": 278,
      "ĭ": 279,
      "į": 280,
      "İ": 281,
      "ı": 282,
      "ĵ": 283,
      "ļ": 284,
      "Ł": 285,
      "ł": 286,
      "Ń": 287,
      "ń": 288,
      "Ň": 289,
      "ň": 290,
      "ŉ": 291,
      "Ŋ": 292,
      "ŋ": 293,
      "Ō": 294,
      "ō": 295,
      "Ŏ": 296,
      "ŏ": 297,
      "ő": 298,
      "Œ": 299,
      "œ": 300,
      "Ŕ": 301,
      "ŕ": 302,
      "Ř": 303,
      "ř": 304,
      "Ś": 305,
      "ś": 306,
      "Ŝ": 307,
      "ŝ": 308,
      "Ş": 309,
      "ş": 310,
      "Š": 311,
      "š": 312,
      "ţ": 313,
      "ť": 314,
      "ŧ": 315,
      "Ũ": 316,
      "ũ": 317,
      "Ū": 318,
      "ū": 319,
      "Ŭ": 320,
      "ŭ": 321,
      "Ů": 322,
      "ů": 323,
      "ű": 324,
      "ų": 325,
      "Ŵ": 326,
      "ŵ": 327,
      "Ŷ": 328,
      "ŷ": 329,
      "Ÿ": 330,
      "ź": 331,
      "Ż": 332,
      "ż": 333,
      "Ž": 334,
      "ž": 335,
      "ſ": 336,
      "ƀ": 337,
      "Ɔ": 338,
      "Ǝ": 339,
      "Ɛ": 340,
      "ƒ": 341,
      "ƕ": 342,
      "Ɩ": 343,
      "ƚ": 344,
      "ƥ": 345,
      "Ƨ": 346,
      "ư": 347,
      "Ƶ": 348,
      "Ʒ": 349,
      "ƿ": 350,
      "ǁ": 351,
      "ǎ": 352,
      "Ǐ": 353,
      "ǐ": 354,
      "ǒ": 355,
      "ǔ": 356,
      "Ǖ": 357,
      "ǖ": 358,
      "ǝ": 359,
      "ǟ": 360,
      "ǡ": 361,
      "Ǣ": 362,
      "ǣ": 363,
      "ǥ": 364,
      "ǧ": 365,
      "Ǫ": 366,
      "ǫ": 367,
      "ǭ": 368,
      "Ǵ": 369,
      "ǵ": 370,
      "Ƿ": 371,
      "ǹ": 372,
      "ǽ": 373,
      "ȗ": 374,
      "Ț": 375,
      "ț": 376,
      "Ȝ": 377,
      "ȝ": 378,
      "ȣ": 379,
      "Ȧ": 380,
      "ȧ": 381,
      "ȩ": 382,
      "ȫ": 383,
      "ȯ": 384,
      "ȱ": 385,
      "Ȳ": 386,
      "ȳ": 387,
      "Ȼ": 388,
      "ȼ": 389,
      "Ʌ": 390,
      "ɑ": 391,
      "ɒ": 392,
      "ɔ": 393,
      "ə": 394,
      "ɛ": 395,
      "ɣ": 396,
      "ɥ": 397,
      "ɧ": 398,
      "ɩ": 399,
      "ɪ": 400,
      "ɫ": 401,
      "ɭ": 402,
      "ɯ": 403,
      "ɱ": 404,
      "ɲ": 405,
      "ɳ": 406,
      "ɶ": 407,
      "ɹ": 408,
      "ʃ": 409,
      "ʅ": 410,
      "ʇ": 411,
      "ʊ": 412,
      "ʌ": 413,
      "ʍ": 414,
      "ʒ": 415,
      "ʘ": 416,
      "ʞ": 417,
      "ʠ": 418,
      "ʰ": 419,
      "ʲ": 420,
      "ʳ": 421,
      "ʷ": 422,
      "ʸ": 423,
      "ʹ": 424,
      "ʺ": 425,
      "ʻ": 426,
      "ʼ": 427,
      "ʽ": 428,
      "ʾ": 429,
      "ʿ": 430,
      "ˀ": 431,
      "ˆ": 432,
      "ˈ": 433,
      "ˉ": 434,
      "ˌ": 435,
      "ː": 436,
      "ˑ": 437,
      "˔": 438,
      "˕": 439,
      "˘": 440,
      "˙": 441,
      "˚": 442,
      "˛": 443,
      "˜": 444,
      "˝": 445,
      "ˡ": 446,
      "ˢ": 447,
      "ˣ": 448,
      "˭": 449,
      "˳": 450,
      "̀": 451,
      "́": 452,
      "̂": 453,
      "̃": 454,
      "̄": 455,
      "̅": 456,
      "̆": 457,
      "̇": 458,
      "̈": 459,
      "̉": 460,
      "̊": 461,
      "̋": 462,
      "̌": 463,
      "̍": 464,
      "̑": 465,
      "̓": 466,
      "̝": 467,
      "̠": 468,
      "̢": 469,
      "̣": 470,
      "̤": 471,
      "̥": 472,
      "̦": 473,
      "̧": 474,
      "̨": 475,
      "̩": 476,
      "̭": 477,
      "̯": 478,
      "̱": 479,
      "̲": 480,
      "̴": 481,
      "̵": 482,
      "̶": 483,
      "̷": 484,
      "̸": 485,
      "̾": 486,
      "́": 487,
      "͂": 488,
      "̓": 489,
      "̈́": 490,
      "ͅ": 491,
      "͆": 492,
      "͐": 493,
      "͒": 494,
      "͕": 495,
      "͜": 496,
      "͝": 497,
      "͞": 498,
      "͠": 499,
      "͡": 500,
      "ͣ": 501,
      "ͤ": 502,
      "ͥ": 503,
      "ͦ": 504,
      "ͧ": 505,
      "ͨ": 506,
      "ͩ": 507,
      "ͪ": 508,
      "ͬ": 509,
      "ͭ": 510,
      "ͮ": 511,
      "Ͱ": 512,
      "ʹ": 513,
      "͵": 514,
      ";": 515,
      "΄": 516,
      "΅": 517,
      "Ά": 518,
      "·": 519,
      "Έ": 520,
      "Ή": 521,
      "Ί": 522,
      "Ό": 523,
      "Ύ": 524,
      "Ώ": 525,
      "ΐ": 526,
      "Α": 527,
      "Β": 528,
      "Γ": 529,
      "Δ": 530,
      "Ε": 531,
      "Ζ": 532,
      "Η": 533,
      "Θ": 534,
      "Ι": 535,
      "Κ": 536,
      "Λ": 537,
      "Μ": 538,
      "Ν": 539,
      "Ξ": 540,
      "Ο": 541,
      "Π": 542,
      "Ρ": 543,
      "Σ": 544,
      "Τ": 545,
      "Υ": 546,
      "Φ": 547,
      "Χ": 548,
      "Ψ": 549,
      "Ω": 550,
      "Ϊ": 551,
      "ά": 552,
      "έ": 553,
      "ή": 554,
      "ί": 555,
      "ΰ": 556,
      "α": 557,
      "β": 558,
      "γ": 559,
      "δ": 560,
      "ε": 561,
      "ζ": 562,
      "η": 563,
      "θ": 564,
      "ι": 565,
      "κ": 566,
      "λ": 567,
      "μ": 568,
      "ν": 569,
      "ξ": 570,
      "ο": 571,
      "π": 572,
      "ρ": 573,
      "ς": 574,
      "σ": 575,
      "τ": 576,
      "υ": 577,
      "φ": 578,
      "χ": 579,
      "ψ": 580,
      "ω": 581,
      "ϊ": 582,
      "ϋ": 583,
      "ό": 584,
      "ύ": 585,
      "ώ": 586,
      "ϐ": 587,
      "ϑ": 588,
      "ϒ": 589,
      "ϕ": 590,
      "ϖ": 591,
      "ϗ": 592,
      "Ϙ": 593,
      "ϙ": 594,
      "Ϛ": 595,
      "ϛ": 596,
      "Ϝ": 597,
      "ϝ": 598,
      "Ϟ": 599,
      "ϟ": 600,
      "ϡ": 601,
      "ϥ": 602,
      "ϫ": 603,
      "ϯ": 604,
      "ϰ": 605,
      "ϱ": 606,
      "ϲ": 607,
      "ϴ": 608,
      "ϵ": 609,
      "϶": 610,
      "Ϲ": 611,
      "Ϻ": 612,
      "ϻ": 613,
      "Ͻ": 614,
      "Ђ": 615,
      "Є": 616,
      "І": 617,
      "Ј": 618,
      "Љ": 619,
      "Њ": 620,
      "Џ": 621,
      "А": 622,
      "Б": 623,
      "В": 624,
      "Г": 625,
      "Д": 626,
      "Е": 627,
      "Ж": 628,
      "З": 629,
      "И": 630,
      "Й": 631,
      "К": 632,
      "Л": 633,
      "М": 634,
      "Н": 635,
      "О": 636,
      "П": 637,
      "Р": 638,
      "С": 639,
      "Т": 640,
      "У": 641,
      "Ф": 642,
      "Х": 643,
      "Ц": 644,
      "Ч": 645,
      "Ш": 646,
      "Щ": 647,
      "Ъ": 648,
      "Ы": 649,
      "Ь": 650,
      "Э": 651,
      "Ю": 652,
      "Я": 653,
      "а": 654,
      "б": 655,
      "в": 656,
      "г": 657,
      "д": 658,
      "е": 659,
      "ж": 660,
      "з": 661,
      "и": 662,
      "й": 663,
      "к": 664,
      "л": 665,
      "м": 666,
      "н": 667,
      "о": 668,
      "п": 669,
      "р": 670,
      "с": 671,
      "т": 672,
      "у": 673,
      "ф": 674,
      "х": 675,
      "ц": 676,
      "ч": 677,
      "ш": 678,
      "щ": 679,
      "ъ": 680,
      "ы": 681,
      "ь": 682,
      "э": 683,
      "ю": 684,
      "я": 685,
      "ё": 686,
      "ђ": 687,
      "є": 688,
      "і": 689,
      "ј": 690,
      "ћ": 691,
      "ў": 692,
      "Ѣ": 693,
      "ѣ": 694,
      "Ѳ": 695,
      "ѳ": 696,
      "Ѵ": 697,
      "ѵ": 698,
      "җ": 699,
      "ҫ": 700,
      "ӑ": 701,
      "ӱ": 702,
      "Ԁ": 703,
      "Ԃ": 704,
      "Ԋ": 705,
      "Ա": 706,
      "Ե": 707,
      "Զ": 708,
      "Ը": 709,
      "Ի": 710,
      "Ն": 711,
      "Փ": 712,
      "ա": 713,
      "բ": 714,
      "գ": 715,
      "ե": 716,
      "զ": 717,
      "թ": 718,
      "ի": 719,
      "լ": 720,
      "խ": 721,
      "ծ": 722,
      "կ": 723,
      "հ": 724,
      "ղ": 725,
      "մ": 726,
      "ն": 727,
      "ո": 728,
      "չ": 729,
      "պ": 730,
      "ս": 731,
      "վ": 732,
      "տ": 733,
      "ր": 734,
      "ց": 735,
      "ւ": 736,
      "փ": 737,
      "ք": 738,
      "օ": 739,
      "և": 740,
      "֑": 741,
      "֒": 742,
      "֓": 743,
      "֔": 744,
      "֕": 745,
      "֖": 746,
      "֗": 747,
      "֘": 748,
      "֙": 749,
      "֚": 750,
      "֛": 751,
      "֜": 752,
      "֝": 753,
      "֞": 754,
      "֟": 755,
      "֠": 756,
      "֡": 757,
      "֢": 758,
      "֣": 759,
      "֤": 760,
      "֥": 761,
      "֦": 762,
      "֧": 763,
      "֨": 764,
      "֩": 765,
      "֫": 766,
      "֬": 767,
      "֭": 768,
      "֮": 769,
      "֯": 770,
      "ְ": 771,
      "ֱ": 772,
      "ֲ": 773,
      "ֳ": 774,
      "ִ": 775,
      "ֵ": 776,
      "ֶ": 777,
      "ַ": 778,
      "ָ": 779,
      "ֹ": 780,
      "ֺ": 781,
      "ֻ": 782,
      "ּ": 783,
      "ֽ": 784,
      "־": 785,
      "׀": 786,
      "ׁ": 787,
      "ׂ": 788,
      "׃": 789,
      "ׄ": 790,
      "ׇ": 791,
      "א": 792,
      "ב": 793,
      "ג": 794,
      "ד": 795,
      "ה": 796,
      "ו": 797,
      "ז": 798,
      "ח": 799,
      "ט": 800,
      "י": 801,
      "ך": 802,
      "כ": 803,
      "ל": 804,
      "ם": 805,
      "מ": 806,
      "ן": 807,
      "נ": 808,
      "ס": 809,
      "ע": 810,
      "ף": 811,
      "פ": 812,
      "ץ": 813,
      "צ": 814,
      "ק": 815,
      "ר": 816,
      "ש": 817,
      "ת": 818,
      "ױ": 819,
      "ײ": 820,
      "׳": 821,
      "״": 822,
      "،": 823,
      "؟": 824,
      "ء": 825,
      "آ": 826,
      "أ": 827,
      "ؤ": 828,
      "إ": 829,
      "ئ": 830,
      "ا": 831,
      "ب": 832,
      "ة": 833,
      "ت": 834,
      "ث": 835,
      "ج": 836,
      "ح": 837,
      "خ": 838,
      "د": 839,
      "ذ": 840,
      "ر": 841,
      "ز": 842,
      "س": 843,
      "ش": 844,
      "ص": 845,
      "ض": 846,
      "ط": 847,
      "ظ": 848,
      "ع": 849,
      "غ": 850,
      "ف": 851,
      "ق": 852,
      "ك": 853,
      "ل": 854,
      "م": 855,
      "ن": 856,
      "ه": 857,
      "و": 858,
      "ى": 859,
      "ي": 860,
      "ً": 861,
      "ٌ": 862,
      "َ": 863,
      "ُ": 864,
      "ِ": 865,
      "ّ": 866,
      "ْ": 867,
      "٘": 868,
      "٢": 869,
      "٥": 870,
      "٦": 871,
      "٧": 872,
      "ٱ": 873,
      "پ": 874,
      "چ": 875,
      "ڙ": 876,
      "ک": 877,
      "گ": 878,
      "ۃ": 879,
      "ی": 880,
      "ܐ": 881,
      "ܒ": 882,
      "ܓ": 883,
      "ܕ": 884,
      "ܗ": 885,
      "ܘ": 886,
      "ܙ": 887,
      "ܚ": 888,
      "ܛ": 889,
      "ܝ": 890,
      "ܠ": 891,
      "ܡ": 892,
      "ܢ": 893,
      "ܣ": 894,
      "ܤ": 895,
      "ܥ": 896,
      "ܦ": 897,
      "ܩ": 898,
      "ܪ": 899,
      "ܫ": 900,
      "ܬ": 901,
      "ܰ": 902,
      "ܳ": 903,
      "ܵ": 904,
      "ܿ": 905,
      "ࣨ": 906,
      "ट": 907,
      "ठ": 908,
      "न": 909,
      "ब": 910,
      "म": 911,
      "र": 912,
      "ल": 913,
      "व": 914,
      "स": 915,
      "ा": 916,
      "ि": 917,
      "ी": 918,
      "्": 919,
      "ढ़": 920,
      "ന": 921,
      "་": 922,
      "ཁ": 923,
      "ག": 924,
      "ང": 925,
      "ཆ": 926,
      "ཇ": 927,
      "ཉ": 928,
      "ཎ": 929,
      "ད": 930,
      "ན": 931,
      "པ": 932,
      "ཕ": 933,
      "བ": 934,
      "མ": 935,
      "ཚ": 936,
      "ཛ": 937,
      "འ": 938,
      "ར": 939,
      "ལ": 940,
      "ས": 941,
      "ཧ": 942,
      "ཨ": 943,
      "ཱ": 944,
      "ི": 945,
      "ུ": 946,
      "ེ": 947,
      "ོ": 948,
      "ཾ": 949,
      "ྃ": 950,
      "ྐ": 951,
      "ྒ": 952,
      "ྟ": 953,
      "ྨ": 954,
      "ྭ": 955,
      "ྱ": 956,
      "ྲ": 957,
      "ྷ": 958,
      "Ⴤ": 959,
      "Ꮋ": 960,
      "Ꮩ": 961,
      "ᐯ": 962,
      "ᐱ": 963,
      "ᒥ": 964,
      "ᒪ": 965,
      "ᕼ": 966,
      "ᖤ": 967,
      "ᗜ": 968,
      "ᚠ": 969,
      "ᚢ": 970,
      "ᚤ": 971,
      "ᚦ": 972,
      "ᚨ": 973,
      "ᚩ": 974,
      "ᚭ": 975,
      "ᚮ": 976,
      "ᚱ": 977,
      "ᚳ": 978,
      "ᚴ": 979,
      "ᚷ": 980,
      "ᚺ": 981,
      "ᚻ": 982,
      "ᚼ": 983,
      "ᚾ": 984,
      "ᚿ": 985,
      "ᛁ": 986,
      "ᛂ": 987,
      "ᛅ": 988,
      "ᛆ": 989,
      "ᛉ": 990,
      "ᛋ": 991,
      "ᛌ": 992,
      "ᛍ": 993,
      "ᛏ": 994,
      "ᛐ": 995,
      "ᛑ": 996,
      "ᛒ": 997,
      "ᛖ": 998,
      "ᛗ": 999,
      "ᛘ": 1000,
      "ᛚ": 1001,
      "ᛞ": 1002,
      "ᛟ": 1003,
      "ᛦ": 1004,
      "᛫": 1005,
      "᛬": 1006,
      "᠅": 1007,
      "ᤦ": 1008,
      "ᴊ": 1009,
      "ᴐ": 1010,
      "ᴗ": 1011,
      "ᴜ": 1012,
      "ᴣ": 1013,
      "ᴬ": 1014,
      "ᴰ": 1015,
      "ᴱ": 1016,
      "ᴴ": 1017,
      "ᴵ": 1018,
      "ᴸ": 1019,
      "ᴹ": 1020,
      "ᴺ": 1021,
      "ᴼ": 1022,
      "ᴿ": 1023,
      "ᵀ": 1024,
      "ᵁ": 1025,
      "ᵂ": 1026,
      "ᵃ": 1027,
      "ᵅ": 1028,
      "ᵆ": 1029,
      "ᵇ": 1030,
      "ᵈ": 1031,
      "ᵉ": 1032,
      "ᵊ": 1033,
      "ᵍ": 1034,
      "ᵏ": 1035,
      "ᵐ": 1036,
      "ᵒ": 1037,
      "ᵖ": 1038,
      "ᵗ": 1039,
      "ᵘ": 1040,
      "ᵛ": 1041,
      "ᵞ": 1042,
      "ᵢ": 1043,
      "ᵣ": 1044,
      "ᵥ": 1045,
      "ᵬ": 1046,
      "ᵭ": 1047,
      "ᵹ": 1048,
      "ᶙ": 1049,
      "ᶜ": 1050,
      "ᶠ": 1051,
      "ᶻ": 1052,
      "ᷗ": 1053,
      "ᷛ": 1054,
      "ḁ": 1055,
      "ḃ": 1056,
      "ḅ": 1057,
      "Ḋ": 1058,
      "ḋ": 1059,
      "Ḍ": 1060,
      "ḍ": 1061,
      "Ḏ": 1062,
      "ḏ": 1063,
      "ḗ": 1064,
      "ḙ": 1065,
      "ḟ": 1066,
      "Ḡ": 1067,
      "ḡ": 1068,
      "Ḣ": 1069,
      "ḣ": 1070,
      "Ḥ": 1071,
      "ḥ": 1072,
      "ḯ": 1073,
      "Ḳ": 1074,
      "ḳ": 1075,
      "Ḵ": 1076,
      "ḵ": 1077,
      "Ḷ": 1078,
      "ḷ": 1079,
      "ḻ": 1080,
      "ḿ": 1081,
      "ṁ": 1082,
      "ṃ": 1083,
      "Ṅ": 1084,
      "ṅ": 1085,
      "Ṇ": 1086,
      "ṇ": 1087,
      "ṉ": 1088,
      "Ṓ": 1089,
      "ṓ": 1090,
      "ṕ": 1091,
      "ṗ": 1092,
      "ṙ": 1093,
      "Ṛ": 1094,
      "ṛ": 1095,
      "Ṡ": 1096,
      "ṡ": 1097,
      "Ṣ": 1098,
      "ṣ": 1099,
      "ṥ": 1100,
      "ṫ": 1101,
      "Ṭ": 1102,
      "ṭ": 1103,
      "ṯ": 1104,
      "ṳ": 1105,
      "ṵ": 1106,
      "ṷ": 1107,
      "Ṽ": 1108,
      "ṽ": 1109,
      "ẃ": 1110,
      "ẅ": 1111,
      "ẇ": 1112,
      "ẋ": 1113,
      "Ẍ": 1114,
      "ẍ": 1115,
      "ẏ": 1116,
      "Ẓ": 1117,
      "ẓ": 1118,
      "ẖ": 1119,
      "Ạ": 1120,
      "ạ": 1121,
      "ả": 1122,
      "ậ": 1123,
      "ắ": 1124,
      "ẹ": 1125,
      "Ẻ": 1126,
      "ẻ": 1127,
      "Ẽ": 1128,
      "ẽ": 1129,
      "ị": 1130,
      "ọ": 1131,
      "ụ": 1132,
      "ừ": 1133,
      "ữ": 1134,
      "Ỳ": 1135,
      "ỳ": 1136,
      "Ỹ": 1137,
      "ỹ": 1138,
      "ἀ": 1139,
      "ἁ": 1140,
      "ἂ": 1141,
      "ἃ": 1142,
      "ἄ": 1143,
      "ἅ": 1144,
      "ἆ": 1145,
      "ἇ": 1146,
      "Ἀ": 1147,
      "Ἁ": 1148,
      "Ἂ": 1149,
      "Ἃ": 1150,
      "Ἄ": 1151,
      "Ἅ": 1152,
      "Ἆ": 1153,
      "ἐ": 1154,
      "ἑ": 1155,
      "ἒ": 1156,
      "ἓ": 1157,
      "ἔ": 1158,
      "ἕ": 1159,
      "Ἐ": 1160,
      "Ἑ": 1161,
      "Ἒ": 1162,
      "Ἓ": 1163,
      "Ἔ": 1164,
      "Ἕ": 1165,
      "ἠ": 1166,
      "ἡ": 1167,
      "ἢ": 1168,
      "ἣ": 1169,
      "ἤ": 1170,
      "ἥ": 1171,
      "ἦ": 1172,
      "ἧ": 1173,
      "Ἠ": 1174,
      "Ἡ": 1175,
      "Ἢ": 1176,
      "Ἣ": 1177,
      "Ἤ": 1178,
      "Ἥ": 1179,
      "Ἦ": 1180,
      "Ἧ": 1181,
      "ἰ": 1182,
      "ἱ": 1183,
      "ἲ": 1184,
      "ἳ": 1185,
      "ἴ": 1186,
      "ἵ": 1187,
      "ἶ": 1188,
      "ἷ": 1189,
      "Ἰ": 1190,
      "Ἱ": 1191,
      "Ἲ": 1192,
      "Ἳ": 1193,
      "Ἴ": 1194,
      "Ἵ": 1195,
      "Ἶ": 1196,
      "Ἷ": 1197,
      "ὀ": 1198,
      "ὁ": 1199,
      "ὂ": 1200,
      "ὃ": 1201,
      "ὄ": 1202,
      "ὅ": 1203,
      "Ὀ": 1204,
      "Ὁ": 1205,
      "Ὂ": 1206,
      "Ὃ": 1207,
      "Ὄ": 1208,
      "Ὅ": 1209,
      "ὐ": 1210,
      "ὑ": 1211,
      "ὒ": 1212,
      "ὓ": 1213,
      "ὔ": 1214,
      "ὕ": 1215,
      "ὖ": 1216,
      "ὗ": 1217,
      "Ὑ": 1218,
      "Ὕ": 1219,
      "Ὗ": 1220,
      "ὠ": 1221,
      "ὡ": 1222,
      "ὢ": 1223,
      "ὣ": 1224,
      "ὤ": 1225,
      "ὥ": 1226,
      "ὦ": 1227,
      "ὧ": 1228,
      "Ὠ": 1229,
      "Ὡ": 1230,
      "Ὢ": 1231,
      "Ὣ": 1232,
      "Ὤ": 1233,
      "Ὥ": 1234,
      "Ὦ": 1235,
      "Ὧ": 1236,
      "ὰ": 1237,
      "ά": 1238,
      "ὲ": 1239,
      "έ": 1240,
      "ὴ": 1241,
      "ή": 1242,
      "ὶ": 1243,
      "ί": 1244,
      "ὸ": 1245,
      "ό": 1246,
      "ὺ": 1247,
      "ύ": 1248,
      "ὼ": 1249,
      "ώ": 1250,
      "ᾀ": 1251,
      "ᾂ": 1252,
      "ᾄ": 1253,
      "ᾅ": 1254,
      "ᾆ": 1255,
      "ᾇ": 1256,
      "ᾐ": 1257,
      "ᾑ": 1258,
      "ᾒ": 1259,
      "ᾓ": 1260,
      "ᾔ": 1261,
      "ᾕ": 1262,
      "ᾖ": 1263,
      "ᾗ": 1264,
      "ᾠ": 1265,
      "ᾡ": 1266,
      "ᾣ": 1267,
      "ᾤ": 1268,
      "ᾧ": 1269,
      "ᾨ": 1270,
      "ᾬ": 1271,
      "ᾭ": 1272,
      "ᾰ": 1273,
      "ᾱ": 1274,
      "ᾲ": 1275,
      "ᾳ": 1276,
      "ᾴ": 1277,
      "ᾶ": 1278,
      "ᾷ": 1279,
      "Ά": 1280,
      "᾽": 1281,
      "᾿": 1282,
      "῀": 1283,
      "ῂ": 1284,
      "ῃ": 1285,
      "ῄ": 1286,
      "ῆ": 1287,
      "ῇ": 1288,
      "Ὲ": 1289,
      "Έ": 1290,
      "Ὴ": 1291,
      "Ή": 1292,
      "ῌ": 1293,
      "῍": 1294,
      "῎": 1295,
      "῏": 1296,
      "ῐ": 1297,
      "ῑ": 1298,
      "ῒ": 1299,
      "ΐ": 1300,
      "ῖ": 1301,
      "ῗ": 1302,
      "Ῑ": 1303,
      "Ὶ": 1304,
      "Ί": 1305,
      "῝": 1306,
      "῞": 1307,
      "῟": 1308,
      "ῠ": 1309,
      "ῡ": 1310,
      "ῢ": 1311,
      "ΰ": 1312,
      "ῤ": 1313,
      "ῥ": 1314,
      "ῦ": 1315,
      "ῧ": 1316,
      "Ὺ": 1317,
      "Ύ": 1318,
      "Ῥ": 1319,
      "῭": 1320,
      "΅": 1321,
      "ῲ": 1322,
      "ῳ": 1323,
      "ῴ": 1324,
      "ῶ": 1325,
      "ῷ": 1326,
      "Ό": 1327,
      "ῼ": 1328,
      "´": 1329,
      "῾": 1330,
      "‍": 1331,
      "‎": 1332,
      "‏": 1333,
      "‐": 1334,
      "‑": 1335,
      "‒": 1336,
      "–": 1337,
      "—": 1338,
      "―": 1339,
      "‖": 1340,
      "‗": 1341,
      "‘": 1342,
      "’": 1343,
      "‚": 1344,
      "‛": 1345,
      "“": 1346,
      "”": 1347,
      "„": 1348,
      "‟": 1349,
      "†": 1350,
      "‡": 1351,
      "•": 1352,
      "‥": 1353,
      "…": 1354,
      "‧": 1355,
      "‪": 1356,
      "‫": 1357,
      "‬": 1358,
      "‭": 1359,
      "‮": 1360,
      "‰": 1361,
      "′": 1362,
      "″": 1363,
      "‴": 1364,
      "‵": 1365,
      "‸": 1366,
      "‹": 1367,
      "›": 1368,
      "※": 1369,
      "‾": 1370,
      "‿": 1371,
      "⁁": 1372,
      "⁂": 1373,
      "⁄": 1374,
      "⁊": 1375,
      "⁎": 1376,
      "⁐": 1377,
      "⁓": 1378,
      "⁔": 1379,
      "⁘": 1380,
      "⁙": 1381,
      "⁝": 1382,
      "⁞": 1383,
      "⁠": 1384,
      "⁮": 1385,
      "⁰": 1386,
      "ⁱ": 1387,
      "⁴": 1388,
      "⁵": 1389,
      "⁶": 1390,
      "⁷": 1391,
      "⁸": 1392,
      "⁹": 1393,
      "⁻": 1394,
      "⁾": 1395,
      "ⁿ": 1396,
      "₀": 1397,
      "₁": 1398,
      "₂": 1399,
      "₃": 1400,
      "₄": 1401,
      "₅": 1402,
      "₆": 1403,
      "₇": 1404,
      "₈": 1405,
      "₉": 1406,
      "ₐ": 1407,
      "ₒ": 1408,
      "ₓ": 1409,
      "ₘ": 1410,
      "ₜ": 1411,
      "€": 1412,
      "₰": 1413,
      "₵": 1414,
      "⃨": 1415,
      "℀": 1416,
      "℅": 1417,
      "℈": 1418,
      "ℓ": 1419,
      "℔": 1420,
      "℞": 1421,
      "℟": 1422,
      "™": 1423,
      "℣": 1424,
      "℥": 1425,
      "ℨ": 1426,
      "ℳ": 1427,
      "⅁": 1428,
      "⅄": 1429,
      "⅌": 1430,
      "⅐": 1431,
      "⅑": 1432,
      "⅒": 1433,
      "⅓": 1434,
      "⅔": 1435,
      "⅕": 1436,
      "⅖": 1437,
      "⅗": 1438,
      "⅘": 1439,
      "⅙": 1440,
      "⅚": 1441,
      "⅛": 1442,
      "⅜": 1443,
      "⅝": 1444,
      "⅞": 1445,
      "⅟": 1446,
      "Ⅰ": 1447,
      "Ⅴ": 1448,
      "Ⅹ": 1449,
      "Ⅼ": 1450,
      "Ⅽ": 1451,
      "Ⅾ": 1452,
      "ⅿ": 1453,
      "ↀ": 1454,
      "ↁ": 1455,
      "ↂ": 1456,
      "Ↄ": 1457,
      "ↄ": 1458,
      "ↆ": 1459,
      "ↇ": 1460,
      "ↈ": 1461,
      "←": 1462,
      "↑": 1463,
      "→": 1464,
      "↓": 1465,
      "↙": 1466,
      "↰": 1467,
      "↷": 1468,
      "↿": 1469,
      "⇄": 1470,
      "⇌": 1471,
      "∂": 1472,
      "∋": 1473,
      "∑": 1474,
      "−": 1475,
      "∓": 1476,
      "∕": 1477,
      "∘": 1478,
      "√": 1479,
      "∛": 1480,
      "∜": 1481,
      "∝": 1482,
      "∞": 1483,
      "∟": 1484,
      "∠": 1485,
      "∥": 1486,
      "∧": 1487,
      "∨": 1488,
      "∩": 1489,
      "∪": 1490,
      "∫": 1491,
      "∬": 1492,
      "∴": 1493,
      "∵": 1494,
      "∶": 1495,
      "∷": 1496,
      "∹": 1497,
      "∺": 1498,
      "∽": 1499,
      "∾": 1500,
      "≅": 1501,
      "≈": 1502,
      "≍": 1503,
      "≎": 1504,
      "≏": 1505,
      "≐": 1506,
      "≚": 1507,
      "≠": 1508,
      "≡": 1509,
      "≢": 1510,
      "⊂": 1511,
      "⊃": 1512,
      "⊏": 1513,
      "⊐": 1514,
      "⊔": 1515,
      "⊕": 1516,
      "⊖": 1517,
      "⊙": 1518,
      "⊜": 1519,
      "⊝": 1520,
      "⊞": 1521,
      "⊤": 1522,
      "⊥": 1523,
      "⊼": 1524,
      "⋀": 1525,
      "⋂": 1526,
      "⋃": 1527,
      "⋅": 1528,
      "⋮": 1529,
      "⋯": 1530,
      "⌃": 1531,
      "⌅": 1532,
      "⌒": 1533,
      "⌓": 1534,
      "⌗": 1535,
      "⌠": 1536,
      "⌡": 1537,
      "〈": 1538,
      "〉": 1539,
      "⌶": 1540,
      "⎛": 1541,
      "⎜": 1542,
      "⎝": 1543,
      "⎞": 1544,
      "⎟": 1545,
      "⎠": 1546,
      "⎧": 1547,
      "⎨": 1548,
      "⎩": 1549,
      "⎪": 1550,
      "⎫": 1551,
      "⎬": 1552,
      "⎭": 1553,
      "⎮": 1554,
      "⎵": 1555,
      "⎿": 1556,
      "⏊": 1557,
      "⏌": 1558,
      "⏑": 1559,
      "⏒": 1560,
      "⏓": 1561,
      "⏔": 1562,
      "⏕": 1563,
      "⏖": 1564,
      "⏗": 1565,
      "⏘": 1566,
      "⏝": 1567,
      "⏞": 1568,
      "⏟": 1569,
      "①": 1570,
      "②": 1571,
      "③": 1572,
      "④": 1573,
      "⑤": 1574,
      "⑥": 1575,
      "⒜": 1576,
      "⒝": 1577,
      "⒞": 1578,
      "⒟": 1579,
      "⒠": 1580,
      "ⓐ": 1581,
      "⓵": 1582,
      "─": 1583,
      "━": 1584,
      "│": 1585,
      "┃": 1586,
      "┌": 1587,
      "┏": 1588,
      "┐": 1589,
      "┓": 1590,
      "└": 1591,
      "┗": 1592,
      "┘": 1593,
      "┚": 1594,
      "┛": 1595,
      "├": 1596,
      "┣": 1597,
      "┤": 1598,
      "┫": 1599,
      "┬": 1600,
      "┯": 1601,
      "┰": 1602,
      "┴": 1603,
      "┷": 1604,
      "┸": 1605,
      "┻": 1606,
      "┼": 1607,
      "╂": 1608,
      "╋": 1609,
      "═": 1610,
      "║": 1611,
      "╒": 1612,
      "╔": 1613,
      "╕": 1614,
      "╗": 1615,
      "╘": 1616,
      "╚": 1617,
      "╛": 1618,
      "╝": 1619,
      "╞": 1620,
      "╟": 1621,
      "╠": 1622,
      "╡": 1623,
      "╢": 1624,
      "╣": 1625,
      "╤": 1626,
      "╥": 1627,
      "╦": 1628,
      "╧": 1629,
      "╨": 1630,
      "╪": 1631,
      "╫": 1632,
      "╬": 1633,
      "╭": 1634,
      "╮": 1635,
      "╯": 1636,
      "╰": 1637,
      "╱": 1638,
      "╲": 1639,
      "╳": 1640,
      "╸": 1641,
      "╺": 1642,
      "▂": 1643,
      "█": 1644,
      "▌": 1645,
      "▎": 1646,
      "▐": 1647,
      "▔": 1648,
      "▕": 1649,
      "■": 1650,
      "□": 1651,
      "▢": 1652,
      "▤": 1653,
      "▨": 1654,
      "▪": 1655,
      "▭": 1656,
      "▮": 1657,
      "▱": 1658,
      "▲": 1659,
      "△": 1660,
      "▶": 1661,
      "►": 1662,
      "▼": 1663,
      "▽": 1664,
      "◀": 1665,
      "◆": 1666,
      "◇": 1667,
      "◉": 1668,
      "◊": 1669,
      "○": 1670,
      "◍": 1671,
      "●": 1672,
      "◖": 1673,
      "◠": 1674,
      "◡": 1675,
      "◬": 1676,
      "◯": 1677,
      "★": 1678,
      "☉": 1679,
      "☊": 1680,
      "☋": 1681,
      "☌": 1682,
      "☍": 1683,
      "☓": 1684,
      "☘": 1685,
      "☙": 1686,
      "☚": 1687,
      "☛": 1688,
      "☜": 1689,
      "☞": 1690,
      "☥": 1691,
      "☧": 1692,
      "☨": 1693,
      "☩": 1694,
      "☰": 1695,
      "☱": 1696,
      "☲": 1697,
      "☳": 1698,
      "☴": 1699,
      "☵": 1700,
      "☶": 1701,
      "☷": 1702,
      "☼": 1703,
      "☽": 1704,
      "☾": 1705,
      "☿": 1706,
      "♀": 1707,
      "♁": 1708,
      "♂": 1709,
      "♃": 1710,
      "♄": 1711,
      "♅": 1712,
      "♆": 1713,
      "♇": 1714,
      "♈": 1715,
      "♉": 1716,
      "♊": 1717,
      "♋": 1718,
      "♌": 1719,
      "♍": 1720,
      "♎": 1721,
      "♏": 1722,
      "♐": 1723,
      "♑": 1724,
      "♒": 1725,
      "♓": 1726,
      "♔": 1727,
      "♕": 1728,
      "♖": 1729,
      "♗": 1730,
      "♘": 1731,
      "♙": 1732,
      "♚": 1733,
      "♛": 1734,
      "♜": 1735,
      "♝": 1736,
      "♞": 1737,
      "♟": 1738,
      "♠": 1739,
      "♡": 1740,
      "♢": 1741,
      "♣": 1742,
      "♥": 1743,
      "♦": 1744,
      "♩": 1745,
      "♪": 1746,
      "♭": 1747,
      "♮": 1748,
      "♯": 1749,
      "⚀": 1750,
      "⚁": 1751,
      "⚂": 1752,
      "⚃": 1753,
      "⚄": 1754,
      "⚅": 1755,
      "⚊": 1756,
      "⚋": 1757,
      "⚌": 1758,
      "⚍": 1759,
      "⚎": 1760,
      "⚏": 1761,
      "⚐": 1762,
      "⚔": 1763,
      "⚪": 1764,
      "⚫": 1765,
      "⚬": 1766,
      "⚲": 1767,
      "⚳": 1768,
      "⚴": 1769,
      "⚵": 1770,
      "⚶": 1771,
      "⚹": 1772,
      "⛀": 1773,
      "⛁": 1774,
      "⛂": 1775,
      "⛃": 1776,
      "⛢": 1777,
      "⛳": 1778,
      "✓": 1779,
      "✕": 1780,
      "✙": 1781,
      "✝": 1782,
      "✟": 1783,
      "✠": 1784,
      "✡": 1785,
      "✩": 1786,
      "✱": 1787,
      "✲": 1788,
      "✴": 1789,
      "✶": 1790,
      "✿": 1791,
      "❀": 1792,
      "❌": 1793,
      "❦": 1794,
      "❧": 1795,
      "❯": 1796,
      "➔": 1797,
      "⟂": 1798,
      "⟙": 1799,
      "⠁": 1800,
      "⠄": 1801,
      "⦠": 1802,
      "⦻": 1803,
      "⦾": 1804,
      "⦿": 1805,
      "⧧": 1806,
      "⧫": 1807,
      "⧸": 1808,
      "⧼": 1809,
      "⨀": 1810,
      "⨁": 1811,
      "⩀": 1812,
      "⩋": 1813,
      "⩡": 1814,
      "⪌": 1815,
      "⪥": 1816,
      "⫍": 1817,
      "⫎": 1818,
      "⫛": 1819,
      "⫨": 1820,
      "⫶": 1821,
      "⬆": 1822,
      "⬜": 1823,
      "⬯": 1824,
      "⭘": 1825,
      "Ɑ": 1826,
      "Ⲁ": 1827,
      "ⲁ": 1828,
      "Ⲃ": 1829,
      "Ⲉ": 1830,
      "ⲏ": 1831,
      "Ⲓ": 1832,
      "ⲓ": 1833,
      "ⲕ": 1834,
      "ⲙ": 1835,
      "Ⲛ": 1836,
      "ⲛ": 1837,
      "ⲟ": 1838,
      "Ⲡ": 1839,
      "ⲧ": 1840,
      "Ⲫ": 1841,
      "Ⲭ": 1842,
      "Ⲯ": 1843,
      "⳨": 1844,
      "⸗": 1845,
      "⸧": 1846,
      "⸪": 1847,
      "⸫": 1848,
      "⸲": 1849,
      "⸴": 1850,
      "⸸": 1851,
      "⸺": 1852,
      "⸻": 1853,
      "、": 1854,
      "。": 1855,
      "〃": 1856,
      "〔": 1857,
      "〕": 1858,
      "ひ": 1859,
      "ア": 1860,
      "イ": 1861,
      "エ": 1862,
      "カ": 1863,
      "ガ": 1864,
      "グ": 1865,
      "ジ": 1866,
      "ス": 1867,
      "ゼ": 1868,
      "ソ": 1869,
      "ダ": 1870,
      "チ": 1871,
      "ッ": 1872,
      "ト": 1873,
      "ナ": 1874,
      "パ": 1875,
      "プ": 1876,
      "ベ": 1877,
      "マ": 1878,
      "ャ": 1879,
      "ン": 1880,
      "・": 1881,
      "ー": 1882,
      "㇀": 1883,
      "㇁": 1884,
      "㇏": 1885,
      "㇐": 1886,
      "㇑": 1887,
      "㇒": 1888,
      "㇔": 1889,
      "㇚": 1890,
      "䷞": 1891,
      "一": 1892,
      "丁": 1893,
      "七": 1894,
      "三": 1895,
      "上": 1896,
      "下": 1897,
      "不": 1898,
      "且": 1899,
      "丕": 1900,
      "世": 1901,
      "丘": 1902,
      "丞": 1903,
      "両": 1904,
      "中": 1905,
      "丸": 1906,
      "主": 1907,
      "乃": 1908,
      "久": 1909,
      "之": 1910,
      "乎": 1911,
      "乘": 1912,
      "九": 1913,
      "也": 1914,
      "乾": 1915,
      "亂": 1916,
      "了": 1917,
      "予": 1918,
      "事": 1919,
      "二": 1920,
      "于": 1921,
      "云": 1922,
      "五": 1923,
      "井": 1924,
      "亞": 1925,
      "亢": 1926,
      "交": 1927,
      "亦": 1928,
      "享": 1929,
      "京": 1930,
      "亭": 1931,
      "亶": 1932,
      "人": 1933,
      "什": 1934,
      "仁": 1935,
      "仇": 1936,
      "今": 1937,
      "仍": 1938,
      "他": 1939,
      "代": 1940,
      "令": 1941,
      "以": 1942,
      "仲": 1943,
      "任": 1944,
      "伊": 1945,
      "伋": 1946,
      "伏": 1947,
      "伯": 1948,
      "伸": 1949,
      "似": 1950,
      "伽": 1951,
      "但": 1952,
      "住": 1953,
      "何": 1954,
      "佛": 1955,
      "作": 1956,
      "佩": 1957,
      "使": 1958,
      "侃": 1959,
      "來": 1960,
      "侈": 1961,
      "例": 1962,
      "侍": 1963,
      "侏": 1964,
      "侗": 1965,
      "依": 1966,
      "侯": 1967,
      "侵": 1968,
      "係": 1969,
      "俗": 1970,
      "信": 1971,
      "修": 1972,
      "倘": 1973,
      "候": 1974,
      "值": 1975,
      "偃": 1976,
      "假": 1977,
      "偕": 1978,
      "做": 1979,
      "停": 1980,
      "健": 1981,
      "偪": 1982,
      "偶": 1983,
      "備": 1984,
      "傳": 1985,
      "傷": 1986,
      "僎": 1987,
      "僕": 1988,
      "僚": 1989,
      "儀": 1990,
      "儒": 1991,
      "儻": 1992,
      "允": 1993,
      "元": 1994,
      "充": 1995,
      "先": 1996,
      "光": 1997,
      "克": 1998,
      "免": 1999,
      "兒": 2000,
      "兗": 2001,
      "入": 2002,
      "內": 2003,
      "全": 2004,
      "兩": 2005,
      "八": 2006,
      "公": 2007,
      "六": 2008,
      "共": 2009,
      "兵": 2010,
      "其": 2011,
      "具": 2012,
      "典": 2013,
      "兼": 2014,
      "内": 2015,
      "冉": 2016,
      "冕": 2017,
      "冤": 2018,
      "冶": 2019,
      "冷": 2020,
      "准": 2021,
      "凌": 2022,
      "凡": 2023,
      "出": 2024,
      "分": 2025,
      "切": 2026,
      "列": 2027,
      "初": 2028,
      "別": 2029,
      "利": 2030,
      "到": 2031,
      "刲": 2032,
      "制": 2033,
      "刷": 2034,
      "刻": 2035,
      "則": 2036,
      "剋": 2037,
      "前": 2038,
      "剎": 2039,
      "劉": 2040,
      "劍": 2041,
      "力": 2042,
      "功": 2043,
      "加": 2044,
      "助": 2045,
      "勉": 2046,
      "勒": 2047,
      "務": 2048,
      "勝": 2049,
      "勢": 2050,
      "勤": 2051,
      "勸": 2052,
      "勾": 2053,
      "勿": 2054,
      "包": 2055,
      "化": 2056,
      "北": 2057,
      "匡": 2058,
      "匯": 2059,
      "匿": 2060,
      "十": 2061,
      "千": 2062,
      "卅": 2063,
      "升": 2064,
      "卍": 2065,
      "卐": 2066,
      "卒": 2067,
      "南": 2068,
      "博": 2069,
      "卜": 2070,
      "卞": 2071,
      "卧": 2072,
      "卯": 2073,
      "印": 2074,
      "危": 2075,
      "即": 2076,
      "卷": 2077,
      "卹": 2078,
      "卿": 2079,
      "厚": 2080,
      "原": 2081,
      "厤": 2082,
      "厲": 2083,
      "去": 2084,
      "參": 2085,
      "又": 2086,
      "及": 2087,
      "友": 2088,
      "反": 2089,
      "叔": 2090,
      "受": 2091,
      "叢": 2092,
      "口": 2093,
      "古": 2094,
      "句": 2095,
      "叭": 2096,
      "可": 2097,
      "史": 2098,
      "右": 2099,
      "司": 2100,
      "各": 2101,
      "合": 2102,
      "吉": 2103,
      "同": 2104,
      "名": 2105,
      "后": 2106,
      "吏": 2107,
      "向": 2108,
      "君": 2109,
      "吠": 2110,
      "否": 2111,
      "吳": 2112,
      "吽": 2113,
      "吾": 2114,
      "告": 2115,
      "呢": 2116,
      "周": 2117,
      "味": 2118,
      "呷": 2119,
      "呼": 2120,
      "命": 2121,
      "和": 2122,
      "咸": 2123,
      "哀": 2124,
      "品": 2125,
      "哆": 2126,
      "哉": 2127,
      "員": 2128,
      "哨": 2129,
      "哪": 2130,
      "哲": 2131,
      "唐": 2132,
      "唫": 2133,
      "唵": 2134,
      "商": 2135,
      "問": 2136,
      "啟": 2137,
      "善": 2138,
      "喇": 2139,
      "喚": 2140,
      "單": 2141,
      "嗚": 2142,
      "嘉": 2143,
      "嘗": 2144,
      "嘴": 2145,
      "器": 2146,
      "噲": 2147,
      "嚤": 2148,
      "嚴": 2149,
      "四": 2150,
      "回": 2151,
      "因": 2152,
      "固": 2153,
      "國": 2154,
      "圖": 2155,
      "土": 2156,
      "在": 2157,
      "地": 2158,
      "圻": 2159,
      "均": 2160,
      "坐": 2161,
      "坡": 2162,
      "坪": 2163,
      "坭": 2164,
      "垣": 2165,
      "垻": 2166,
      "城": 2167,
      "域": 2168,
      "埠": 2169,
      "基": 2170,
      "堂": 2171,
      "堅": 2172,
      "報": 2173,
      "塔": 2174,
      "塲": 2175,
      "墜": 2176,
      "增": 2177,
      "墨": 2178,
      "墩": 2179,
      "墳": 2180,
      "壁": 2181,
      "壓": 2182,
      "壤": 2183,
      "壩": 2184,
      "士": 2185,
      "壬": 2186,
      "壺": 2187,
      "壽": 2188,
      "夀": 2189,
      "夏": 2190,
      "夕": 2191,
      "外": 2192,
      "多": 2193,
      "夜": 2194,
      "夥": 2195,
      "大": 2196,
      "天": 2197,
      "太": 2198,
      "夫": 2199,
      "夷": 2200,
      "夾": 2201,
      "奇": 2202,
      "奈": 2203,
      "奉": 2204,
      "奕": 2205,
      "女": 2206,
      "奴": 2207,
      "奸": 2208,
      "好": 2209,
      "如": 2210,
      "妄": 2211,
      "妙": 2212,
      "妥": 2213,
      "妹": 2214,
      "妻": 2215,
      "始": 2216,
      "姓": 2217,
      "委": 2218,
      "姚": 2219,
      "威": 2220,
      "娶": 2221,
      "嬰": 2222,
      "子": 2223,
      "孔": 2224,
      "字": 2225,
      "存": 2226,
      "孝": 2227,
      "孟": 2228,
      "季": 2229,
      "孫": 2230,
      "學": 2231,
      "孺": 2232,
      "宇": 2233,
      "守": 2234,
      "安": 2235,
      "宋": 2236,
      "完": 2237,
      "宏": 2238,
      "宓": 2239,
      "宗": 2240,
      "官": 2241,
      "定": 2242,
      "宜": 2243,
      "客": 2244,
      "宣": 2245,
      "室": 2246,
      "宮": 2247,
      "宰": 2248,
      "害": 2249,
      "家": 2250,
      "容": 2251,
      "宿": 2252,
      "寅": 2253,
      "密": 2254,
      "寇": 2255,
      "寉": 2256,
      "富": 2257,
      "寐": 2258,
      "寕": 2259,
      "察": 2260,
      "實": 2261,
      "寰": 2262,
      "寵": 2263,
      "寶": 2264,
      "寺": 2265,
      "封": 2266,
      "射": 2267,
      "將": 2268,
      "專": 2269,
      "尉": 2270,
      "尊": 2271,
      "小": 2272,
      "少": 2273,
      "尚": 2274,
      "尹": 2275,
      "尺": 2276,
      "尼": 2277,
      "尾": 2278,
      "居": 2279,
      "屢": 2280,
      "層": 2281,
      "屬": 2282,
      "山": 2283,
      "屺": 2284,
      "岡": 2285,
      "岷": 2286,
      "峨": 2287,
      "峰": 2288,
      "島": 2289,
      "峻": 2290,
      "崇": 2291,
      "崖": 2292,
      "嶓": 2293,
      "嶲": 2294,
      "嶺": 2295,
      "川": 2296,
      "州": 2297,
      "工": 2298,
      "左": 2299,
      "巫": 2300,
      "已": 2301,
      "巴": 2302,
      "巽": 2303,
      "市": 2304,
      "帖": 2305,
      "帛": 2306,
      "帝": 2307,
      "師": 2308,
      "帶": 2309,
      "常": 2310,
      "平": 2311,
      "年": 2312,
      "幵": 2313,
      "并": 2314,
      "幸": 2315,
      "幹": 2316,
      "幾": 2317,
      "庄": 2318,
      "序": 2319,
      "店": 2320,
      "府": 2321,
      "度": 2322,
      "庭": 2323,
      "庵": 2324,
      "庶": 2325,
      "康": 2326,
      "庸": 2327,
      "廉": 2328,
      "廟": 2329,
      "廡": 2330,
      "廣": 2331,
      "延": 2332,
      "廷": 2333,
      "建": 2334,
      "廾": 2335,
      "廿": 2336,
      "弁": 2337,
      "式": 2338,
      "弓": 2339,
      "引": 2340,
      "弟": 2341,
      "張": 2342,
      "強": 2343,
      "彌": 2344,
      "彙": 2345,
      "彝": 2346,
      "形": 2347,
      "彭": 2348,
      "彼": 2349,
      "往": 2350,
      "待": 2351,
      "律": 2352,
      "後": 2353,
      "徐": 2354,
      "徒": 2355,
      "得": 2356,
      "從": 2357,
      "御": 2358,
      "復": 2359,
      "循": 2360,
      "徳": 2361,
      "徵": 2362,
      "德": 2363,
      "徼": 2364,
      "心": 2365,
      "必": 2366,
      "忌": 2367,
      "志": 2368,
      "忘": 2369,
      "忠": 2370,
      "快": 2371,
      "忻": 2372,
      "怒": 2373,
      "思": 2374,
      "性": 2375,
      "怱": 2376,
      "恆": 2377,
      "恐": 2378,
      "恒": 2379,
      "恕": 2380,
      "恨": 2381,
      "恩": 2382,
      "恭": 2383,
      "息": 2384,
      "悉": 2385,
      "悟": 2386,
      "患": 2387,
      "悲": 2388,
      "悼": 2389,
      "情": 2390,
      "惕": 2391,
      "惟": 2392,
      "惠": 2393,
      "惡": 2394,
      "想": 2395,
      "惹": 2396,
      "愍": 2397,
      "意": 2398,
      "愚": 2399,
      "愛": 2400,
      "感": 2401,
      "慈": 2402,
      "態": 2403,
      "慎": 2404,
      "慕": 2405,
      "慧": 2406,
      "慰": 2407,
      "慶": 2408,
      "憲": 2409,
      "應": 2410,
      "懷": 2411,
      "懼": 2412,
      "懿": 2413,
      "戀": 2414,
      "戈": 2415,
      "戎": 2416,
      "成": 2417,
      "我": 2418,
      "或": 2419,
      "戴": 2420,
      "戶": 2421,
      "所": 2422,
      "手": 2423,
      "才": 2424,
      "打": 2425,
      "扶": 2426,
      "批": 2427,
      "承": 2428,
      "技": 2429,
      "抗": 2430,
      "折": 2431,
      "抵": 2432,
      "拉": 2433,
      "拓": 2434,
      "括": 2435,
      "拱": 2436,
      "拷": 2437,
      "指": 2438,
      "按": 2439,
      "振": 2440,
      "捨": 2441,
      "捷": 2442,
      "授": 2443,
      "掌": 2444,
      "掣": 2445,
      "接": 2446,
      "措": 2447,
      "插": 2448,
      "換": 2449,
      "揭": 2450,
      "損": 2451,
      "摩": 2452,
      "撫": 2453,
      "播": 2454,
      "撰": 2455,
      "擾": 2456,
      "攝": 2457,
      "收": 2458,
      "攻": 2459,
      "放": 2460,
      "故": 2461,
      "救": 2462,
      "教": 2463,
      "敝": 2464,
      "敢": 2465,
      "散": 2466,
      "敬": 2467,
      "敵": 2468,
      "數": 2469,
      "斂": 2470,
      "斃": 2471,
      "文": 2472,
      "斗": 2473,
      "料": 2474,
      "斯": 2475,
      "新": 2476,
      "方": 2477,
      "於": 2478,
      "施": 2479,
      "旂": 2480,
      "旅": 2481,
      "旋": 2482,
      "旗": 2483,
      "既": 2484,
      "日": 2485,
      "旦": 2486,
      "旨": 2487,
      "早": 2488,
      "旺": 2489,
      "昆": 2490,
      "昇": 2491,
      "昌": 2492,
      "明": 2493,
      "易": 2494,
      "星": 2495,
      "映": 2496,
      "春": 2497,
      "昭": 2498,
      "是": 2499,
      "昺": 2500,
      "時": 2501,
      "晉": 2502,
      "晌": 2503,
      "晏": 2504,
      "晚": 2505,
      "晢": 2506,
      "普": 2507,
      "景": 2508,
      "智": 2509,
      "暗": 2510,
      "曉": 2511,
      "曰": 2512,
      "書": 2513,
      "曹": 2514,
      "曾": 2515,
      "最": 2516,
      "會": 2517,
      "月": 2518,
      "有": 2519,
      "服": 2520,
      "望": 2521,
      "朝": 2522,
      "期": 2523,
      "木": 2524,
      "未": 2525,
      "本": 2526,
      "朱": 2527,
      "朶": 2528,
      "李": 2529,
      "村": 2530,
      "杜": 2531,
      "束": 2532,
      "東": 2533,
      "松": 2534,
      "板": 2535,
      "析": 2536,
      "林": 2537,
      "果": 2538,
      "柔": 2539,
      "柱": 2540,
      "柳": 2541,
      "柴": 2542,
      "栖": 2543,
      "校": 2544,
      "栢": 2545,
      "根": 2546,
      "格": 2547,
      "桂": 2548,
      "案": 2549,
      "梁": 2550,
      "梅": 2551,
      "梓": 2552,
      "條": 2553,
      "梢": 2554,
      "棋": 2555,
      "棖": 2556,
      "棟": 2557,
      "棹": 2558,
      "楊": 2559,
      "楠": 2560,
      "業": 2561,
      "極": 2562,
      "楷": 2563,
      "榕": 2564,
      "榮": 2565,
      "樂": 2566,
      "樊": 2567,
      "樣": 2568,
      "横": 2569,
      "樹": 2570,
      "橋": 2571,
      "機": 2572,
      "橫": 2573,
      "欖": 2574,
      "次": 2575,
      "欣": 2576,
      "欬": 2577,
      "欺": 2578,
      "歆": 2579,
      "歐": 2580,
      "歛": 2581,
      "止": 2582,
      "正": 2583,
      "此": 2584,
      "步": 2585,
      "武": 2586,
      "歲": 2587,
      "歷": 2588,
      "歸": 2589,
      "死": 2590,
      "殊": 2591,
      "殤": 2592,
      "殺": 2593,
      "殿": 2594,
      "毋": 2595,
      "母": 2596,
      "毎": 2597,
      "每": 2598,
      "比": 2599,
      "毛": 2600,
      "氏": 2601,
      "民": 2602,
      "水": 2603,
      "永": 2604,
      "求": 2605,
      "汎": 2606,
      "汝": 2607,
      "江": 2608,
      "池": 2609,
      "汪": 2610,
      "汲": 2611,
      "沅": 2612,
      "沉": 2613,
      "沖": 2614,
      "沙": 2615,
      "沛": 2616,
      "河": 2617,
      "治": 2618,
      "沿": 2619,
      "法": 2620,
      "波": 2621,
      "泥": 2622,
      "泰": 2623,
      "洋": 2624,
      "洗": 2625,
      "洛": 2626,
      "洞": 2627,
      "津": 2628,
      "洪": 2629,
      "洱": 2630,
      "洲": 2631,
      "活": 2632,
      "洽": 2633,
      "派": 2634,
      "流": 2635,
      "海": 2636,
      "消": 2637,
      "淨": 2638,
      "淫": 2639,
      "深": 2640,
      "淳": 2641,
      "淵": 2642,
      "淸": 2643,
      "清": 2644,
      "減": 2645,
      "渠": 2646,
      "渡": 2647,
      "港": 2648,
      "渴": 2649,
      "游": 2650,
      "渾": 2651,
      "湘": 2652,
      "湯": 2653,
      "溝": 2654,
      "溪": 2655,
      "溫": 2656,
      "滄": 2657,
      "滅": 2658,
      "滇": 2659,
      "滋": 2660,
      "漆": 2661,
      "漢": 2662,
      "潔": 2663,
      "潞": 2664,
      "潭": 2665,
      "澂": 2666,
      "澗": 2667,
      "澤": 2668,
      "澹": 2669,
      "濂": 2670,
      "濱": 2671,
      "瀾": 2672,
      "火": 2673,
      "災": 2674,
      "為": 2675,
      "烏": 2676,
      "烹": 2677,
      "無": 2678,
      "然": 2679,
      "照": 2680,
      "熙": 2681,
      "熱": 2682,
      "燄": 2683,
      "燈": 2684,
      "燒": 2685,
      "燕": 2686,
      "營": 2687,
      "爭": 2688,
      "爲": 2689,
      "父": 2690,
      "爾": 2691,
      "版": 2692,
      "牛": 2693,
      "牟": 2694,
      "牢": 2695,
      "牧": 2696,
      "物": 2697,
      "特": 2698,
      "犬": 2699,
      "犯": 2700,
      "狂": 2701,
      "狃": 2702,
      "狄": 2703,
      "獄": 2704,
      "獅": 2705,
      "獨": 2706,
      "獻": 2707,
      "玀": 2708,
      "玄": 2709,
      "玉": 2710,
      "王": 2711,
      "班": 2712,
      "現": 2713,
      "琁": 2714,
      "球": 2715,
      "理": 2716,
      "琉": 2717,
      "琳": 2718,
      "琴": 2719,
      "瑀": 2720,
      "瑗": 2721,
      "璃": 2722,
      "璩": 2723,
      "瓦": 2724,
      "甄": 2725,
      "甘": 2726,
      "生": 2727,
      "產": 2728,
      "用": 2729,
      "甫": 2730,
      "甯": 2731,
      "田": 2732,
      "由": 2733,
      "甲": 2734,
      "申": 2735,
      "男": 2736,
      "甸": 2737,
      "町": 2738,
      "界": 2739,
      "畏": 2740,
      "略": 2741,
      "番": 2742,
      "畫": 2743,
      "異": 2744,
      "當": 2745,
      "疆": 2746,
      "疏": 2747,
      "疾": 2748,
      "病": 2749,
      "登": 2750,
      "發": 2751,
      "白": 2752,
      "百": 2753,
      "的": 2754,
      "皆": 2755,
      "皇": 2756,
      "皋": 2757,
      "皙": 2758,
      "皤": 2759,
      "皮": 2760,
      "盛": 2761,
      "盡": 2762,
      "盪": 2763,
      "目": 2764,
      "直": 2765,
      "相": 2766,
      "省": 2767,
      "眉": 2768,
      "看": 2769,
      "真": 2770,
      "眾": 2771,
      "督": 2772,
      "睦": 2773,
      "睾": 2774,
      "瞻": 2775,
      "瞿": 2776,
      "矣": 2777,
      "知": 2778,
      "石": 2779,
      "破": 2780,
      "碑": 2781,
      "磉": 2782,
      "磧": 2783,
      "礒": 2784,
      "礱": 2785,
      "社": 2786,
      "祀": 2787,
      "祈": 2788,
      "祖": 2789,
      "神": 2790,
      "祠": 2791,
      "祥": 2792,
      "祺": 2793,
      "祿": 2794,
      "禁": 2795,
      "福": 2796,
      "禮": 2797,
      "禹": 2798,
      "禽": 2799,
      "秀": 2800,
      "私": 2801,
      "秋": 2802,
      "科": 2803,
      "秦": 2804,
      "程": 2805,
      "種": 2806,
      "稱": 2807,
      "穀": 2808,
      "穆": 2809,
      "穌": 2810,
      "穎": 2811,
      "穰": 2812,
      "空": 2813,
      "窩": 2814,
      "窮": 2815,
      "立": 2816,
      "站": 2817,
      "章": 2818,
      "端": 2819,
      "竹": 2820,
      "第": 2821,
      "筆": 2822,
      "等": 2823,
      "策": 2824,
      "箭": 2825,
      "節": 2826,
      "篇": 2827,
      "籍": 2828,
      "米": 2829,
      "粗": 2830,
      "粵": 2831,
      "粻": 2832,
      "精": 2833,
      "糧": 2834,
      "系": 2835,
      "紀": 2836,
      "約": 2837,
      "紇": 2838,
      "納": 2839,
      "紐": 2840,
      "級": 2841,
      "素": 2842,
      "索": 2843,
      "終": 2844,
      "結": 2845,
      "絞": 2846,
      "給": 2847,
      "統": 2848,
      "經": 2849,
      "網": 2850,
      "緣": 2851,
      "緯": 2852,
      "緻": 2853,
      "縚": 2854,
      "縣": 2855,
      "縱": 2856,
      "縵": 2857,
      "總": 2858,
      "繆": 2859,
      "繇": 2860,
      "繫": 2861,
      "纂": 2862,
      "續": 2863,
      "罔": 2864,
      "罕": 2865,
      "罪": 2866,
      "置": 2867,
      "罰": 2868,
      "罵": 2869,
      "羅": 2870,
      "羊": 2871,
      "美": 2872,
      "羔": 2873,
      "群": 2874,
      "義": 2875,
      "羲": 2876,
      "羽": 2877,
      "翁": 2878,
      "翟": 2879,
      "翼": 2880,
      "老": 2881,
      "考": 2882,
      "者": 2883,
      "而": 2884,
      "耐": 2885,
      "耕": 2886,
      "耳": 2887,
      "耶": 2888,
      "聖": 2889,
      "聞": 2890,
      "聲": 2891,
      "職": 2892,
      "聽": 2893,
      "肅": 2894,
      "肉": 2895,
      "肩": 2896,
      "背": 2897,
      "能": 2898,
      "脖": 2899,
      "脩": 2900,
      "腊": 2901,
      "膽": 2902,
      "臣": 2903,
      "臥": 2904,
      "臨": 2905,
      "自": 2906,
      "臭": 2907,
      "至": 2908,
      "致": 2909,
      "臺": 2910,
      "與": 2911,
      "興": 2912,
      "舖": 2913,
      "舟": 2914,
      "般": 2915,
      "船": 2916,
      "良": 2917,
      "色": 2918,
      "艸": 2919,
      "芝": 2920,
      "花": 2921,
      "芻": 2922,
      "苑": 2923,
      "若": 2924,
      "苦": 2925,
      "英": 2926,
      "范": 2927,
      "茢": 2928,
      "茲": 2929,
      "茶": 2930,
      "荀": 2931,
      "草": 2932,
      "荒": 2933,
      "莊": 2934,
      "莫": 2935,
      "菜": 2936,
      "菩": 2937,
      "華": 2938,
      "菴": 2939,
      "萊": 2940,
      "萬": 2941,
      "落": 2942,
      "葉": 2943,
      "著": 2944,
      "葛": 2945,
      "葢": 2946,
      "蒙": 2947,
      "蒧": 2948,
      "蒲": 2949,
      "蒼": 2950,
      "蓋": 2951,
      "蓬": 2952,
      "蓮": 2953,
      "蓺": 2954,
      "蔑": 2955,
      "蔡": 2956,
      "蔬": 2957,
      "蕪": 2958,
      "蕭": 2959,
      "薛": 2960,
      "薩": 2961,
      "藍": 2962,
      "藏": 2963,
      "藐": 2964,
      "藝": 2965,
      "藥": 2966,
      "藩": 2967,
      "蘧": 2968,
      "蘭": 2969,
      "虎": 2970,
      "虔": 2971,
      "處": 2972,
      "虙": 2973,
      "虛": 2974,
      "虞": 2975,
      "虫": 2976,
      "蛉": 2977,
      "蛾": 2978,
      "蜀": 2979,
      "蜻": 2980,
      "蝻": 2981,
      "融": 2982,
      "螺": 2983,
      "蟬": 2984,
      "蟻": 2985,
      "蠻": 2986,
      "衆": 2987,
      "行": 2988,
      "衍": 2989,
      "街": 2990,
      "衙": 2991,
      "衛": 2992,
      "衣": 2993,
      "表": 2994,
      "袁": 2995,
      "袓": 2996,
      "被": 2997,
      "裏": 2998,
      "裕": 2999,
      "裘": 3000,
      "補": 3001,
      "裡": 3002,
      "裨": 3003,
      "製": 3004,
      "襄": 3005,
      "西": 3006,
      "要": 3007,
      "見": 3008,
      "規": 3009,
      "視": 3010,
      "親": 3011,
      "覺": 3012,
      "覽": 3013,
      "觀": 3014,
      "角": 3015,
      "解": 3016,
      "言": 3017,
      "訓": 3018,
      "記": 3019,
      "許": 3020,
      "註": 3021,
      "詁": 3022,
      "詈": 3023,
      "詣": 3024,
      "試": 3025,
      "詩": 3026,
      "該": 3027,
      "詳": 3028,
      "語": 3029,
      "誣": 3030,
      "誤": 3031,
      "說": 3032,
      "誰": 3033,
      "課": 3034,
      "請": 3035,
      "論": 3036,
      "諭": 3037,
      "諸": 3038,
      "謁": 3039,
      "謂": 3040,
      "謄": 3041,
      "謊": 3042,
      "謗": 3043,
      "講": 3044,
      "證": 3045,
      "譜": 3046,
      "譯": 3047,
      "護": 3048,
      "讀": 3049,
      "讎": 3050,
      "讓": 3051,
      "谷": 3052,
      "豈": 3053,
      "豐": 3054,
      "象": 3055,
      "豢": 3056,
      "貞": 3057,
      "負": 3058,
      "財": 3059,
      "貢": 3060,
      "貧": 3061,
      "貨": 3062,
      "貪": 3063,
      "貴": 3064,
      "買": 3065,
      "費": 3066,
      "貼": 3067,
      "貿": 3068,
      "賂": 3069,
      "賄": 3070,
      "賈": 3071,
      "賊": 3072,
      "賓": 3073,
      "賜": 3074,
      "賢": 3075,
      "賣": 3076,
      "賤": 3077,
      "賴": 3078,
      "贛": 3079,
      "赤": 3080,
      "起": 3081,
      "越": 3082,
      "趙": 3083,
      "距": 3084,
      "路": 3085,
      "跳": 3086,
      "蹄": 3087,
      "身": 3088,
      "躬": 3089,
      "車": 3090,
      "軍": 3091,
      "軟": 3092,
      "輯": 3093,
      "輿": 3094,
      "轉": 3095,
      "辛": 3096,
      "辦": 3097,
      "辨": 3098,
      "辯": 3099,
      "辰": 3100,
      "辱": 3101,
      "農": 3102,
      "迂": 3103,
      "近": 3104,
      "迦": 3105,
      "述": 3106,
      "迷": 3107,
      "追": 3108,
      "送": 3109,
      "适": 3110,
      "逆": 3111,
      "這": 3112,
      "通": 3113,
      "造": 3114,
      "連": 3115,
      "進": 3116,
      "逵": 3117,
      "逸": 3118,
      "逹": 3119,
      "遂": 3120,
      "遇": 3121,
      "遊": 3122,
      "遍": 3123,
      "過": 3124,
      "道": 3125,
      "達": 3126,
      "遙": 3127,
      "遜": 3128,
      "遠": 3129,
      "適": 3130,
      "遲": 3131,
      "遵": 3132,
      "選": 3133,
      "遺": 3134,
      "還": 3135,
      "邊": 3136,
      "邕": 3137,
      "邢": 3138,
      "那": 3139,
      "邦": 3140,
      "邱": 3141,
      "郈": 3142,
      "郡": 3143,
      "郢": 3144,
      "郭": 3145,
      "郯": 3146,
      "郰": 3147,
      "都": 3148,
      "鄉": 3149,
      "鄒": 3150,
      "鄔": 3151,
      "鄡": 3152,
      "鄧": 3153,
      "鄭": 3154,
      "鄱": 3155,
      "鄹": 3156,
      "醫": 3157,
      "釀": 3158,
      "釋": 3159,
      "里": 3160,
      "重": 3161,
      "野": 3162,
      "量": 3163,
      "釐": 3164,
      "金": 3165,
      "鉤": 3166,
      "銀": 3167,
      "鋪": 3168,
      "錄": 3169,
      "錫": 3170,
      "錯": 3171,
      "鍇": 3172,
      "鍊": 3173,
      "鎮": 3174,
      "鏡": 3175,
      "鐫": 3176,
      "鑑": 3177,
      "鑪": 3178,
      "長": 3179,
      "門": 3180,
      "閂": 3181,
      "開": 3182,
      "間": 3183,
      "閔": 3184,
      "閻": 3185,
      "關": 3186,
      "阬": 3187,
      "阮": 3188,
      "防": 3189,
      "阻": 3190,
      "阿": 3191,
      "陀": 3192,
      "附": 3193,
      "陋": 3194,
      "陜": 3195,
      "陞": 3196,
      "院": 3197,
      "除": 3198,
      "陬": 3199,
      "陰": 3200,
      "陳": 3201,
      "陶": 3202,
      "陸": 3203,
      "陽": 3204,
      "隆": 3205,
      "隋": 3206,
      "際": 3207,
      "隨": 3208,
      "險": 3209,
      "隻": 3210,
      "雄": 3211,
      "雅": 3212,
      "集": 3213,
      "雍": 3214,
      "雕": 3215,
      "雖": 3216,
      "雚": 3217,
      "雜": 3218,
      "雞": 3219,
      "離": 3220,
      "難": 3221,
      "雲": 3222,
      "零": 3223,
      "雷": 3224,
      "電": 3225,
      "霖": 3226,
      "霞": 3227,
      "霸": 3228,
      "靈": 3229,
      "靑": 3230,
      "青": 3231,
      "靖": 3232,
      "非": 3233,
      "靡": 3234,
      "面": 3235,
      "革": 3236,
      "鞫": 3237,
      "韋": 3238,
      "音": 3239,
      "韻": 3240,
      "頂": 3241,
      "順": 3242,
      "須": 3243,
      "頌": 3244,
      "領": 3245,
      "頤": 3246,
      "頭": 3247,
      "顏": 3248,
      "顒": 3249,
      "顓": 3250,
      "顗": 3251,
      "願": 3252,
      "類": 3253,
      "顥": 3254,
      "顧": 3255,
      "顯": 3256,
      "風": 3257,
      "飛": 3258,
      "食": 3259,
      "飯": 3260,
      "飲": 3261,
      "餉": 3262,
      "養": 3263,
      "餓": 3264,
      "餕": 3265,
      "餘": 3266,
      "饋": 3267,
      "饌": 3268,
      "饗": 3269,
      "首": 3270,
      "香": 3271,
      "馬": 3272,
      "駐": 3273,
      "駙": 3274,
      "駟": 3275,
      "騎": 3276,
      "騫": 3277,
      "驕": 3278,
      "驛": 3279,
      "體": 3280,
      "高": 3281,
      "鬧": 3282,
      "鬬": 3283,
      "魏": 3284,
      "魚": 3285,
      "魯": 3286,
      "魴": 3287,
      "鮒": 3288,
      "鯉": 3289,
      "鱣": 3290,
      "鳥": 3291,
      "鳳": 3292,
      "鳴": 3293,
      "鴉": 3294,
      "鴨": 3295,
      "鷄": 3296,
      "鹿": 3297,
      "麗": 3298,
      "麼": 3299,
      "黃": 3300,
      "黄": 3301,
      "黍": 3302,
      "黑": 3303,
      "點": 3304,
      "黨": 3305,
      "鼓": 3306,
      "齊": 3307,
      "齋": 3308,
      "齒": 3309,
      "齡": 3310,
      "龍": 3311,
      "龜": 3312,
      "ꝉ": 3313,
      "ꝏ": 3314,
      "Ꝑ": 3315,
      "ꝑ": 3316,
      "ꝓ": 3317,
      "ꝕ": 3318,
      "Ꝝ": 3319,
      "ꝟ": 3320,
      "ꝥ": 3321,
      "ꝫ": 3322,
      "Ꝭ": 3323,
      "ꝭ": 3324,
      "ꝰ": 3325,
      "ꝶ": 3326,
      "Ꝺ": 3327,
      "ꝺ": 3328,
      "Ꝼ": 3329,
      "ꝼ": 3330,
      "Ᵹ": 3331,
      "ꞃ": 3332,
      "ꞅ": 3333,
      "Ꞇ": 3334,
      "ꞇ": 3335,
      "ꟼ": 3336,
      "ꟽ": 3337,
      "益": 3338,
      "神": 3339,
      "社": 3340,
      "者": 3341,
      "ﬀ": 3342,
      "ﬁ": 3343,
      "ﬂ": 3344,
      "ﬃ": 3345,
      "ﬄ": 3346,
      "ﬅ": 3347,
      "ﬡ": 3348,
      "ﬣ": 3349,
      "ﬤ": 3350,
      "ﬥ": 3351,
      "ﬦ": 3352,
      "ﬨ": 3353,
      "שׁ": 3354,
      "שׂ": 3355,
      "בּ": 3356,
      "גּ": 3357,
      "וּ": 3358,
      "יּ": 3359,
      "כּ": 3360,
      "פּ": 3361,
      "וֹ": 3362,
      "ﭘ": 3363,
      "︶": 3364,
      "︷": 3365,
      "ﺍ": 3366,
      "ﺎ": 3367,
      "ﺏ": 3368,
      "ﺑ": 3369,
      "ﺕ": 3370,
      "ﺖ": 3371,
      "ﺗ": 3372,
      "ﺘ": 3373,
      "ﺙ": 3374,
      "ﺛ": 3375,
      "ﺜ": 3376,
      "ﺝ": 3377,
      "ﺡ": 3378,
      "ﺣ": 3379,
      "ﺥ": 3380,
      "ﺨ": 3381,
      "ﺩ": 3382,
      "ﺪ": 3383,
      "ﺫ": 3384,
      "ﺭ": 3385,
      "ﺮ": 3386,
      "ﺯ": 3387,
      "ﺰ": 3388,
      "ﺳ": 3389,
      "ﺴ": 3390,
      "ﺸ": 3391,
      "ﻊ": 3392,
      "ﻎ": 3393,
      "ﻒ": 3394,
      "ﻛ": 3395,
      "ﻜ": 3396,
      "ﻝ": 3397,
      "ﻟ": 3398,
      "ﻢ": 3399,
      "ﻣ": 3400,
      "ﻥ": 3401,
      "ﻦ": 3402,
      "ﻧ": 3403,
      "ﻨ": 3404,
      "ﻩ": 3405,
      "ﻪ": 3406,
      "ﻭ": 3407,
      "ﻮ": 3408,
      "ﻱ": 3409,
      "ﻳ": 3410,
      "﻿": 3411,
      "！": 3412,
      "＊": 3413,
      "＋": 3414,
      "，": 3415,
      "－": 3416,
      "：": 3417,
      "；": 3418,
      "＜": 3419,
      "＝": 3420,
      "＞": 3421,
      "Ｔ": 3422,
      "Ｖ": 3423,
      "�": 3424,
      "𐅵": 3425,
      "𓎆": 3426,
      "𝔷": 3427,
      "𝝘": 3428,
      "𝝩": 3429,
      "🂡": 3430,
      "🂢": 3431,
      "🂣": 3432,
      "🂤": 3433,
      "🂥": 3434,
      "🂦": 3435,
      "🂧": 3436,
      "🂨": 3437,
      "🂩": 3438,
      "🂪": 3439,
      "🂫": 3440,
      "🂭": 3441,
      "🂮": 3442,
      "🂱": 3443,
      "🂲": 3444,
      "🂳": 3445,
      "🂴": 3446,
      "🂵": 3447,
      "🂶": 3448,
      "🂷": 3449,
      "🂸": 3450,
      "🂹": 3451,
      "🂺": 3452,
      "🂻": 3453,
      "🂽": 3454,
      "🂾": 3455,
      "🃁": 3456,
      "🃂": 3457,
      "🃃": 3458,
      "🃄": 3459,
      "🃅": 3460,
      "🃆": 3461,
      "🃇": 3462,
      "🃈": 3463,
      "🃉": 3464,
      "🃊": 3465,
      "🃋": 3466,
      "🃍": 3467,
      "🃎": 3468,
      "🃑": 3469,
      "🃒": 3470,
      "🃓": 3471,
      "🃔": 3472,
      "🃕": 3473,
      "🃖": 3474,
      "🃗": 3475,
      "🃘": 3476,
      "🃙": 3477,
      "🃚": 3478,
      "🃛": 3479,
      "🃝": 3480,
      "🃞": 3481,
      "🌚": 3482,
      "🌛": 3483,
      "🌜": 3484,
      "🌝": 3485,
      "👉": 3486,
      "🖙": 3487,
      "🖛": 3488,
      "🜚": 3489,
      "🜨": 3490,
      "𡨴": 3491,
      "th": 3492,
      "the": 3493,
      "in": 3494,
      "an": 3495,
      "er": 3496,
      "on": 3497,
      "re": 3498,
      "en": 3499,
      "at": 3500,
      "ou": 3501,
      "ed": 3502,
      "of": 3503,
      "is": 3504,
      "and": 3505,
      "to": 3506,
      "as": 3507,
      "or": 3508,
      "es": 3509,
      "ar": 3510,
      "ing": 3511,
      "al": 3512,
      "it": 3513,
      "he": 3514,
      "le": 3515,
      "st": 3516,
      "ch": 3517,
      "se": 3518,
      "om": 3519,
      "be": 3520,
      "ad": 3521,
      "wh": 3522,
      "ly": 3523,
      "no": 3524,
      "ion": 3525,
      "ll": 3526,
      "ce": 3527,
      "ent": 3528,
      "wi": 3529,
      "ve": 3530,
      "im": 3531,
      "that": 3532,
      "ld": 3533,
      "id": 3534,
      "gh": 3535,
      "for": 3536,
      "was": 3537,
      "ro": 3538,
      "ver": 3539,
      "ut": 3540,
      "ir": 3541,
      "li": 3542,
      "am": 3543,
      "his": 3544,
      "ay": 3545,
      "ri": 3546,
      "ow": 3547,
      "with": 3548,
      "ter": 3549,
      "ac": 3550,
      "un": 3551,
      "--": 3552,
      "all": 3553,
      "ic": 3554,
      "you": 3555,
      "her": 3556,
      "ur": 3557,
      "ha": 3558,
      "de": 3559,
      "su": 3560,
      "not": 3561,
      "ght": 3562,
      "et": 3563,
      "The": 3564,
      "ab": 3565,
      "ther": 3566,
      "had": 3567,
      "ag": 3568,
      "ain": 3569,
      "lo": 3570,
      "we": 3571,
      "us": 3572,
      "are": 3573,
      "con": 3574,
      "mo": 3575,
      "whi": 3576,
      "so": 3577,
      "ne": 3578,
      "ere": 3579,
      "po": 3580,
      "by": 3581,
      "pe": 3582,
      "ct": 3583,
      "sh": 3584,
      "ould": 3585,
      "me": 3586,
      "one": 3587,
      "fe": 3588,
      "ke": 3589,
      "ess": 3590,
      "il": 3591,
      "fr": 3592,
      "our": 3593,
      "nd": 3594,
      "which": 3595,
      "com": 3596,
      "out": 3597,
      "ul": 3598,
      "ation": 3599,
      "est": 3600,
      "res": 3601,
      "od": 3602,
      "per": 3603,
      "him": 3604,
      "qu": 3605,
      "man": 3606,
      "ex": 3607,
      "have": 3608,
      "but": 3609,
      "up": 3610,
      "from": 3611,
      "ap": 3612,
      "tr": 3613,
      "if": 3614,
      "sa": 3615,
      "te": 3616,
      "my": 3617,
      "ard": 3618,
      "this": 3619,
      "ant": 3620,
      "go": 3621,
      "ous": 3622,
      "were": 3623,
      "pl": 3624,
      "she": 3625,
      "art": 3626,
      "they": 3627,
      "fo": 3628,
      "who": 3629,
      "ate": 3630,
      "end": 3631,
      "ill": 3632,
      "do": 3633,
      "co": 3634,
      "ind": 3635,
      "now": 3636,
      "pro": 3637,
      "ust": 3638,
      "ome": 3639,
      ".\"": 3640,
      "ist": 3641,
      "ge": 3642,
      "their": 3643,
      "ong": 3644,
      "ers": 3645,
      "ast": 3646,
      "wor": 3647,
      "ame": 3648,
      "them": 3649,
      "ish": 3650,
      "very": 3651,
      "sel": 3652,
      "ra": 3653,
      "ment": 3654,
      "ound": 3655,
      "ight": 3656,
      "op": 3657,
      "pr": 3658,
      "ig": 3659,
      "ity": 3660,
      "ok": 3661,
      "der": 3662,
      "He": 3663,
      "red": 3664,
      "been": 3665,
      ",\"": 3666,
      "bo": 3667,
      "um": 3668,
      "ak": 3669,
      "other": 3670,
      "ive": 3671,
      "would": 3672,
      "ough": 3673,
      "there": 3674,
      "au": 3675,
      "ven": 3676,
      "said": 3677,
      "thing": 3678,
      "ie": 3679,
      "way": 3680,
      "ol": 3681,
      "em": 3682,
      "fa": 3683,
      "ci": 3684,
      "will": 3685,
      "some": 3686,
      "ence": 3687,
      "own": 3688,
      "ck": 3689,
      "reat": 3690,
      "ure": 3691,
      "ass": 3692,
      "It": 3693,
      "any": 3694,
      "ry": 3695,
      "ine": 3696,
      "oun": 3697,
      "able": 3698,
      "af": 3699,
      "itt": 3700,
      "Th": 3701,
      "tim": 3702,
      "when": 3703,
      "its": 3704,
      "ance": 3705,
      "ort": 3706,
      "self": 3707,
      "act": 3708,
      "ack": 3709,
      "cl": 3710,
      "more": 3711,
      "ear": 3712,
      "can": 3713,
      "el": 3714,
      "ho": 3715,
      "pos": 3716,
      "fore": 3717,
      "wo": 3718,
      "ies": 3719,
      "ans": 3720,
      "has": 3721,
      "ved": 3722,
      "ach": 3723,
      "age": 3724,
      "ake": 3725,
      "pt": 3726,
      "pres": 3727,
      "pre": 3728,
      "into": 3729,
      "dis": 3730,
      "bl": 3731,
      "here": 3732,
      "tain": 3733,
      "day": 3734,
      "ide": 3735,
      "gr": 3736,
      "know": 3737,
      "ally": 3738,
      "what": 3739,
      "ade": 3740,
      "than": 3741,
      "ite": 3742,
      "Wh": 3743,
      "ber": 3744,
      "over": 3745,
      "ep": 3746,
      "In": 3747,
      "ful": 3748,
      "ves": 3749,
      "sp": 3750,
      "could": 3751,
      "And": 3752,
      "part": 3753,
      "br": 3754,
      "gl": 3755,
      "ree": 3756,
      "urn": 3757,
      "ought": 3758,
      "time": 3759,
      "your": 3760,
      "ary": 3761,
      "row": 3762,
      "ions": 3763,
      "But": 3764,
      "ble": 3765,
      "ire": 3766,
      "ot": 3767,
      "str": 3768,
      "great": 3769,
      "ated": 3770,
      "upon": 3771,
      "int": 3772,
      "ice": 3773,
      "men": 3774,
      "si": 3775,
      "ty": 3776,
      "like": 3777,
      "Mr": 3778,
      "then": 3779,
      "ue": 3780,
      "most": 3781,
      "ple": 3782,
      "only": 3783,
      "ord": 3784,
      "fer": 3785,
      "ving": 3786,
      "pp": 3787,
      "ang": 3788,
      "about": 3789,
      "ittle": 3790,
      "ace": 3791,
      "fl": 3792,
      "after": 3793,
      "should": 3794,
      "ob": 3795,
      "see": 3796,
      "hand": 3797,
      "fir": 3798,
      "ud": 3799,
      "again": 3800,
      "form": 3801,
      "long": 3802,
      "little": 3803,
      "ose": 3804,
      "did": 3805,
      "ever": 3806,
      "Ch": 3807,
      "?\"": 3808,
      "spe": 3809,
      "two": 3810,
      "uch": 3811,
      "may": 3812,
      "made": 3813,
      "ser": 3814,
      "ink": 3815,
      "son": 3816,
      "say": 3817,
      "where": 3818,
      "des": 3819,
      "read": 3820,
      "sto": 3821,
      "mon": 3822,
      "ret": 3823,
      "well": 3824,
      "coun": 3825,
      "ward": 3826,
      "how": 3827,
      "look": 3828,
      "off": 3829,
      "sc": 3830,
      "ren": 3831,
      "come": 3832,
      "mar": 3833,
      "----": 3834,
      "under": 3835,
      "ious": 3836,
      "la": 3837,
      "less": 3838,
      "before": 3839,
      "these": 3840,
      "such": 3841,
      "old": 3842,
      "ness": 3843,
      "hi": 3844,
      "let": 3845,
      "good": 3846,
      "came": 3847,
      "must": 3848,
      "ise": 3849,
      "ath": 3850,
      "We": 3851,
      "att": 3852,
      "ign": 3853,
      "first": 3854,
      "much": 3855,
      "18": 3856,
      "new": 3857,
      "ER": 3858,
      "arm": 3859,
      "down": 3860,
      "llow": 3861,
      "inter": 3862,
      "ted": 3863,
      "light": 3864,
      "every": 3865,
      "thr": 3866,
      "ave": 3867,
      "bet": 3868,
      "ction": 3869,
      "ces": 3870,
      "ition": 3871,
      "ked": 3872,
      "even": 3873,
      "land": 3874,
      "orn": 3875,
      "ps": 3876,
      "St": 3877,
      "ater": 3878,
      "right": 3879,
      "av": 3880,
      "cc": 3881,
      "ild": 3882,
      "ef": 3883,
      "pass": 3884,
      "year": 3885,
      "tor": 3886,
      "She": 3887,
      "ey": 3888,
      "ings": 3889,
      "led": 3890,
      "ten": 3891,
      "never": 3892,
      "work": 3893,
      "!\"": 3894,
      "iv": 3895,
      "iss": 3896,
      "ian": 3897,
      "..": 3898,
      "mer": 3899,
      "ener": 3900,
      "went": 3901,
      "ced": 3902,
      "ily": 3903,
      "those": 3904,
      "du": 3905,
      "ick": 3906,
      "call": 3907,
      "many": 3908,
      "being": 3909,
      "je": 3910,
      "ried": 3911,
      "cour": 3912,
      "ations": 3913,
      "cer": 3914,
      "ts": 3915,
      "clo": 3916,
      "port": 3917,
      "through": 3918,
      "ouse": 3919,
      "might": 3920,
      "get": 3921,
      "ev": 3922,
      "think": 3923,
      "back": 3924,
      "ase": 3925,
      "cons": 3926,
      "found": 3927,
      "life": 3928,
      "ph": 3929,
      "ft": 3930,
      "sm": 3931,
      "ied": 3932,
      "head": 3933,
      "seem": 3934,
      "himself": 3935,
      "atter": 3936,
      "lic": 3937,
      "gi": 3938,
      "just": 3939,
      "You": 3940,
      "min": 3941,
      "This": 3942,
      "cont": 3943,
      "try": 3944,
      "cted": 3945,
      "ss": 3946,
      "ered": 3947,
      "word": 3948,
      "though": 3949,
      "thought": 3950,
      "shall": 3951,
      "cau": 3952,
      "car": 3953,
      "cr": 3954,
      "air": 3955,
      "ical": 3956,
      "same": 3957,
      "too": 3958,
      "make": 3959,
      "They": 3960,
      "There": 3961,
      "wr": 3962,
      "TH": 3963,
      "ens": 3964,
      "nat": 3965,
      "present": 3966,
      "und": 3967,
      "without": 3968,
      "reg": 3969,
      "fri": 3970,
      "night": 3971,
      "ond": 3972,
      "comp": 3973,
      "sub": 3974,
      "place": 3975,
      "ress": 3976,
      "les": 3977,
      "last": 3978,
      "appe": 3979,
      "ub": 3980,
      "gu": 3981,
      "dist": 3982,
      "ran": 3983,
      "ith": 3984,
      "king": 3985,
      "side": 3986,
      "while": 3987,
      "ia": 3988,
      "No": 3989,
      "bro": 3990,
      "put": 3991,
      "beg": 3992,
      "ip": 3993,
      "iz": 3994,
      "comm": 3995,
      "ished": 3996,
      "ng": 3997,
      "ared": 3998,
      "ople": 3999,
      "ars": 4000,
      "set": 4001,
      "unt": 4002,
      "stand": 4003,
      "ower": 4004,
      "house": 4005,
      "tak": 4006,
      "press": 4007,
      "med": 4008,
      "vo": 4009,
      "tem": 4010,
      "wom": 4011,
      "den": 4012,
      "still": 4013,
      "dif": 4014,
      "cess": 4015,
      "ks": 4016,
      "cent": 4017,
      "cause": 4018,
      "tell": 4019,
      "En": 4020,
      "sur": 4021,
      "away": 4022,
      "take": 4023,
      "col": 4024,
      "00": 4025,
      "turn": 4026,
      "people": 4027,
      "ial": 4028,
      "lt": 4029,
      "cle": 4030,
      "ors": 4031,
      "lie": 4032,
      "rem": 4033,
      "friend": 4034,
      "ner": 4035,
      "ened": 4036,
      "ull": 4037,
      "also": 4038,
      "pri": 4039,
      "char": 4040,
      "nor": 4041,
      "ject": 4042,
      "follow": 4043,
      "aw": 4044,
      "lar": 4045,
      "point": 4046,
      "ates": 4047,
      "face": 4048,
      "par": 4049,
      "bre": 4050,
      "used": 4051,
      "ile": 4052,
      "jo": 4053,
      "young": 4054,
      "RE": 4055,
      "val": 4056,
      "use": 4057,
      "heart": 4058,
      "child": 4059,
      "three": 4060,
      "ways": 4061,
      "ited": 4062,
      "fect": 4063,
      "years": 4064,
      "ince": 4065,
      "AL": 4066,
      "far": 4067,
      "eyes": 4068,
      "TER": 4069,
      "reas": 4070,
      "If": 4071,
      ".,": 4072,
      "cho": 4073,
      "bu": 4074,
      "ters": 4075,
      "cap": 4076,
      "add": 4077,
      "gener": 4078,
      "God": 4079,
      "fort": 4080,
      "fic": 4081,
      "An": 4082,
      "What": 4083,
      "room": 4084,
      "yet": 4085,
      "As": 4086,
      "Engl": 4087,
      "fin": 4088,
      "vis": 4089,
      "His": 4090,
      "near": 4091,
      "occ": 4092,
      "bod": 4093,
      "bed": 4094,
      "ning": 4095,
      "another": 4096,
      "hal": 4097,
      "ON": 4098,
      "cept": 4099,
      "mem": 4100,
      "cond": 4101,
      "against": 4102,
      "left": 4103,
      "once": 4104,
      "low": 4105,
      "ste": 4106,
      "kind": 4107,
      "give": 4108,
      "ently": 4109,
      "eng": 4110,
      "LE": 4111,
      "vers": 4112,
      "II": 4113,
      "To": 4114,
      "ular": 4115,
      "high": 4116,
      "ton": 4117,
      "ash": 4118,
      "AN": 4119,
      "ments": 4120,
      "ark": 4121,
      "ween": 4122,
      "certain": 4123,
      "love": 4124,
      "got": 4125,
      "each": 4126,
      "ult": 4127,
      "pa": 4128,
      "cy": 4129,
      "mind": 4130,
      "find": 4131,
      "When": 4132,
      "IN": 4133,
      "nothing": 4134,
      "ped": 4135,
      "ents": 4136,
      "happ": 4137,
      "ting": 4138,
      "few": 4139,
      "stru": 4140,
      "pur": 4141,
      "che": 4142,
      "Ar": 4143,
      "aut": 4144,
      "For": 4145,
      "rest": 4146,
      "father": 4147,
      "At": 4148,
      "world": 4149,
      "want": 4150,
      "tri": 4151,
      "took": 4152,
      "ail": 4153,
      "water": 4154,
      "between": 4155,
      "That": 4156,
      "augh": 4157,
      "ls": 4158,
      "called": 4159,
      "don": 4160,
      "ins": 4161,
      "ys": 4162,
      "ged": 4163,
      "rep": 4164,
      "17": 4165,
      "Then": 4166,
      "sol": 4167,
      "atch": 4168,
      "fact": 4169,
      "ange": 4170,
      "person": 4171,
      "Jo": 4172,
      "On": 4173,
      "saw": 4174,
      "vent": 4175,
      "ru": 4176,
      "name": 4177,
      "ures": 4178,
      "tal": 4179,
      "So": 4180,
      "sent": 4181,
      "wn": 4182,
      "THE": 4183,
      "order": 4184,
      "always": 4185,
      "ons": 4186,
      "serv": 4187,
      "war": 4188,
      "qui": 4189,
      "ene": 4190,
      "return": 4191,
      "als": 4192,
      "things": 4193,
      "ither": 4194,
      "acc": 4195,
      "country": 4196,
      "quest": 4197,
      "ush": 4198,
      "mom": 4199,
      "half": 4200,
      "ier": 4201,
      "care": 4202,
      "cover": 4203,
      "cu": 4204,
      "ew": 4205,
      "bit": 4206,
      "ready": 4207,
      ".”": 4208,
      "fam": 4209,
      "seen": 4210,
      "whole": 4211,
      "feel": 4212,
      "among": 4213,
      "course": 4214,
      "possi": 4215,
      "small": 4216,
      "num": 4217,
      "ma": 4218,
      "ised": 4219,
      "body": 4220,
      "sy": 4221,
      "Mar": 4222,
      "Be": 4223,
      "Fr": 4224,
      "ating": 4225,
      "ross": 4226,
      "Se": 4227,
      "sk": 4228,
      "round": 4229,
      "pose": 4230,
      "Mrs": 4231,
      "rown": 4232,
      "having": 4233,
      "iness": 4234,
      "won": 4235,
      "lad": 4236,
      "ended": 4237,
      "wa": 4238,
      "soon": 4239,
      "selves": 4240,
      "both": 4241,
      "rew": 4242,
      "spo": 4243,
      "home": 4244,
      "thy": 4245,
      "answ": 4246,
      "wards": 4247,
      "16": 4248,
      "sat": 4249,
      "aking": 4250,
      "whom": 4251,
      "uring": 4252,
      "aster": 4253,
      "pleas": 4254,
      "because": 4255,
      "mother": 4256,
      "sure": 4257,
      "cor": 4258,
      "done": 4259,
      "sou": 4260,
      "vi": 4261,
      "ext": 4262,
      "peri": 4263,
      "ship": 4264,
      "hel": 4265,
      "ale": 4266,
      "vol": 4267,
      "show": 4268,
      "consid": 4269,
      "pect": 4270,
      "15": 4271,
      "days": 4272,
      "tory": 4273,
      "looked": 4274,
      "power": 4275,
      "four": 4276,
      "cut": 4277,
      "hour": 4278,
      "),": 4279,
      "cal": 4280,
      "ca": 4281,
      "fre": 4282,
      "ities": 4283,
      "Chr": 4284,
      "told": 4285,
      "woman": 4286,
      "moment": 4287,
      "heard": 4288,
      "Br": 4289,
      "wind": 4290,
      "sil": 4291,
      "hold": 4292,
      "gg": 4293,
      "ants": 4294,
      "dr": 4295,
      "seemed": 4296,
      "going": 4297,
      "gir": 4298,
      ",--": 4299,
      "large": 4300,
      "ained": 4301,
      "lay": 4302,
      "cri": 4303,
      "ual": 4304,
      "Pr": 4305,
      "rel": 4306,
      "hard": 4307,
      "suf": 4308,
      "hor": 4309,
      "however": 4310,
      "dou": 4311,
      "ches": 4312,
      "10": 4313,
      "bar": 4314,
      "CH": 4315,
      "law": 4316,
      "better": 4317,
      "matter": 4318,
      "os": 4319,
      "asked": 4320,
      "cei": 4321,
      ".'": 4322,
      "sup": 4323,
      "inde": 4324,
      "Al": 4325,
      "belie": 4326,
      "ages": 4327,
      "interest": 4328,
      "taken": 4329,
      "sim": 4330,
      "gether": 4331,
      "spir": 4332,
      "ably": 4333,
      "given": 4334,
      ".--": 4335,
      "inc": 4336,
      "ately": 4337,
      "play": 4338,
      "together": 4339,
      "known": 4340,
      "inst": 4341,
      "app": 4342,
      "12": 4343,
      "lied": 4344,
      "sum": 4345,
      "fully": 4346,
      "ove": 4347,
      "dra": 4348,
      "ele": 4349,
      "sing": 4350,
      "words": 4351,
      "plac": 4352,
      "ict": 4353,
      "ield": 4354,
      "AR": 4355,
      "hands": 4356,
      "ned": 4357,
      "Lord": 4358,
      "Christ": 4359,
      "fair": 4360,
      "enough": 4361,
      "ont": 4362,
      "almost": 4363,
      "differ": 4364,
      "knew": 4365,
      "contin": 4366,
      "quite": 4367,
      "does": 4368,
      "xt": 4369,
      "adv": 4370,
      "ety": 4371,
      "thor": 4372,
      "posed": 4373,
      "sever": 4374,
      "ii": 4375,
      "open": 4376,
      "19": 4377,
      "conf": 4378,
      "Re": 4379,
      "beaut": 4380,
      "aim": 4381,
      "thus": 4382,
      "ory": 4383,
      "ung": 4384,
      "--------": 4385,
      "door": 4386,
      "ye": 4387,
      "ese": 4388,
      "hu": 4389,
      "ined": 4390,
      "mil": 4391,
      "best": 4392,
      "hn": 4393,
      "sha": 4394,
      "pain": 4395,
      "ustr": 4396,
      "ling": 4397,
      "How": 4398,
      "Ro": 4399,
      "until": 4400,
      "ceed": 4401,
      "fall": 4402,
      "cur": 4403,
      "gave": 4404,
      "position": 4405,
      "ze": 4406,
      "book": 4407,
      "ird": 4408,
      "something": 4409,
      "di": 4410,
      "sho": 4411,
      "igh": 4412,
      "dire": 4413,
      "urch": 4414,
      "gent": 4415,
      "De": 4416,
      ".]": 4417,
      "ances": 4418,
      ",”": 4419,
      "ley": 4420,
      "ather": 4421,
      "bus": 4422,
      "keep": 4423,
      "ison": 4424,
      "morn": 4425,
      "bur": 4426,
      "ute": 4427,
      "brought": 4428,
      "amp": 4429,
      "whose": 4430,
      "death": 4431,
      "haps": 4432,
      "bes": 4433,
      "possible": 4434,
      "sen": 4435,
      "full": 4436,
      "EN": 4437,
      "gra": 4438,
      "ched": 4439,
      "reach": 4440,
      "ream": 4441,
      "Miss": 4442,
      "Un": 4443,
      "ank": 4444,
      "John": 4445,
      "others": 4446,
      "ident": 4447,
      "hon": 4448,
      "que": 4449,
      "tru": 4450,
      "white": 4451,
      "My": 4452,
      "prom": 4453,
      "themselves": 4454,
      "necess": 4455,
      "itu": 4456,
      "var": 4457,
      "14": 4458,
      "blo": 4459,
      "Bo": 4460,
      "need": 4461,
      "morning": 4462,
      "case": 4463,
      "real": 4464,
      "whe": 4465,
      "met": 4466,
      "wal": 4467,
      "lit": 4468,
      "ery": 4469,
      "mean": 4470,
      "ief": 4471,
      "All": 4472,
      "OR": 4473,
      "aring": 4474,
      "cir": 4475,
      "13": 4476,
      "ken": 4477,
      "Ind": 4478,
      "ided": 4479,
      "ground": 4480,
      "often": 4481,
      "ific": 4482,
      "cannot": 4483,
      "poor": 4484,
      "charac": 4485,
      "undred": 4486,
      "ix": 4487,
      "feet": 4488,
      "Con": 4489,
      "wood": 4490,
      "oud": 4491,
      "till": 4492,
      "turned": 4493,
      "iew": 4494,
      "plain": 4495,
      "oney": 4496,
      "road": 4497,
      "ALL": 4498,
      "eas": 4499,
      "doub": 4500,
      "ides": 4501,
      "gy": 4502,
      "gre": 4503,
      "rather": 4504,
      "sun": 4505,
      "reason": 4506,
      "ask": 4507,
      "Oh": 4508,
      "Her": 4509,
      "state": 4510,
      "hundred": 4511,
      "ines": 4512,
      "since": 4513,
      "mis": 4514,
      "fire": 4515,
      "ians": 4516,
      ",'": 4517,
      "next": 4518,
      "ister": 4519,
      "LET": 4520,
      "town": 4521,
      "ets": 4522,
      "strong": 4523,
      "REE": 4524,
      "Com": 4525,
      "dark": 4526,
      "tom": 4527,
      "Sir": 4528,
      "produ": 4529,
      "With": 4530,
      "Do": 4531,
      "Le": 4532,
      "Of": 4533,
      "felt": 4534,
      "English": 4535,
      "ref": 4536,
      "ism": 4537,
      "above": 4538,
      "New": 4539,
      "began": 4540,
      "ired": 4541,
      "six": 4542,
      "ug": 4543,
      "true": 4544,
      "ceived": 4545,
      "ublic": 4546,
      "anger": 4547,
      "swe": 4548,
      "leg": 4549,
      "King": 4550,
      "run": 4551,
      "consider": 4552,
      "claim": 4553,
      "passed": 4554,
      "By": 4555,
      "adm": 4556,
      "SM": 4557,
      "says": 4558,
      "LETTER": 4559,
      "view": 4560,
      "soci": 4561,
      "count": 4562,
      "laugh": 4563,
      "lig": 4564,
      "ative": 4565,
      "Is": 4566,
      "myself": 4567,
      "wife": 4568,
      "{~": 4569,
      "~}": 4570,
      "Nor": 4571,
      "ution": 4572,
      "Now": 4573,
      "stood": 4574,
      "ster": 4575,
      "voice": 4576,
      "stri": 4577,
      "ient": 4578,
      "GREE": 4579,
      "outh": 4580,
      "second": 4581,
      "children": 4582,
      "iting": 4583,
      "member": 4584,
      "lect": 4585,
      "pped": 4586,
      "offic": 4587,
      "Well": 4588,
      "GREEK": 4589,
      "appear": 4590,
      "subject": 4591,
      "speak": 4592,
      "iled": 4593,
      "trans": 4594,
      "along": 4595,
      "pat": 4596,
      "short": 4597,
      "express": 4598,
      "Po": 4599,
      "held": 4600,
      "city": 4601,
      "Yes": 4602,
      "character": 4603,
      "ann": 4604,
      "line": 4605,
      "girl": 4606,
      "band": 4607,
      "arch": 4608,
      "means": 4609,
      ").": 4610,
      "boy": 4611,
      "ctor": 4612,
      "allow": 4613,
      "five": 4614,
      "ah": 4615,
      "sign": 4616,
      "continu": 4617,
      "SMALL": 4618,
      "pen": 4619,
      "hope": 4620,
      "ST": 4621,
      "general": 4622,
      "sess": 4623,
      "Amer": 4624,
      "plo": 4625,
      "fac": 4626,
      "iful": 4627,
      "succ": 4628,
      "money": 4629,
      "prin": 4630,
      "ames": 4631,
      "chief": 4632,
      "imes": 4633,
      "supp": 4634,
      "either": 4635,
      "az": 4636,
      "rench": 4637,
      "mor": 4638,
      "AP": 4639,
      "tempt": 4640,
      "dear": 4641,
      "during": 4642,
      "OF": 4643,
      "number": 4644,
      "question": 4645,
      "times": 4646,
      "Mo": 4647,
      "coming": 4648,
      "moun": 4649,
      "Americ": 4650,
      "close": 4651,
      "gentle": 4652,
      "ich": 4653,
      "sec": 4654,
      "div": 4655,
      "lear": 4656,
      "doubt": 4657,
      "ility": 4658,
      "believe": 4659,
      "within": 4660,
      "herself": 4661,
      "dest": 4662,
      "cus": 4663,
      "Ill": 4664,
      "dec": 4665,
      "One": 4666,
      "perhaps": 4667,
      "ane": 4668,
      "lead": 4669,
      "dri": 4670,
      "dom": 4671,
      "pret": 4672,
      "Par": 4673,
      "une": 4674,
      "Col": 4675,
      "ff": 4676,
      "hear": 4677,
      "aven": 4678,
      "ural": 4679,
      "anything": 4680,
      "fur": 4681,
      "jud": 4682,
      "hind": 4683,
      "sed": 4684,
      "meet": 4685,
      "wish": 4686,
      "illed": 4687,
      "proper": 4688,
      "black": 4689,
      "least": 4690,
      "mark": 4691,
      "covered": 4692,
      "human": 4693,
      "Pro": 4694,
      "Ger": 4695,
      "nature": 4696,
      "itself": 4697,
      "import": 4698,
      "arri": 4699,
      "success": 4700,
      "step": 4701,
      "ards": 4702,
      "alone": 4703,
      "gone": 4704,
      "appro": 4705,
      "dden": 4706,
      "ousand": 4707,
      "prof": 4708,
      "som": 4709,
      "Go": 4710,
      "effect": 4711,
      "wonder": 4712,
      "several": 4713,
      "sle": 4714,
      "indeed": 4715,
      "yed": 4716,
      "miss": 4717,
      "England": 4718,
      "possess": 4719,
      "already": 4720,
      "deep": 4721,
      "tained": 4722,
      "Will": 4723,
      "ones": 4724,
      "sea": 4725,
      "pal": 4726,
      "itted": 4727,
      "looking": 4728,
      "thousand": 4729,
      "bri": 4730,
      "note": 4731,
      "earth": 4732,
      "brother": 4733,
      "20": 4734,
      "therefore": 4735,
      "aged": 4736,
      "French": 4737,
      "ili": 4738,
      "sudden": 4739,
      "qual": 4740,
      "dead": 4741,
      "start": 4742,
      "author": 4743,
      "women": 4744,
      "public": 4745,
      "usu": 4746,
      "chool": 4747,
      "live": 4748,
      "dro": 4749,
      "command": 4750,
      "mot": 4751,
      "ists": 4752,
      "ris": 4753,
      "formed": 4754,
      "remain": 4755,
      "cried": 4756,
      "field": 4757,
      "ured": 4758,
      "spr": 4759,
      "thou": 4760,
      "ford": 4761,
      "comple": 4762,
      "watch": 4763,
      "arms": 4764,
      "letter": 4765,
      "prob": 4766,
      "aren": 4767,
      "anim": 4768,
      "Why": 4769,
      "Ma": 4770,
      "spirit": 4771,
      "respect": 4772,
      "ature": 4773,
      "ats": 4774,
      "Illustr": 4775,
      "mid": 4776,
      "common": 4777,
      "manner": 4778,
      "Af": 4779,
      "fav": 4780,
      "different": 4781,
      "leave": 4782,
      "ible": 4783,
      "gover": 4784,
      "clear": 4785,
      "pie": 4786,
      "ury": 4787,
      "mus": 4788,
      "AT": 4789,
      "stud": 4790,
      "became": 4791,
      "enter": 4792,
      "sound": 4793,
      "lled": 4794,
      "resu": 4795,
      "medi": 4796,
      "free": 4797,
      "ger": 4798,
      "ries": 4799,
      "wall": 4800,
      "ths": 4801,
      "friends": 4802,
      "~}{~": 4803,
      "aint": 4804,
      "become": 4805,
      "exam": 4806,
      "flo": 4807,
      "ying": 4808,
      "Pe": 4809,
      "help": 4810,
      "stead": 4811,
      "ES": 4812,
      "idence": 4813,
      "nment": 4814,
      "making": 4815,
      "por": 4816,
      "gar": 4817,
      "tern": 4818,
      "foot": 4819,
      "partic": 4820,
      "bring": 4821,
      "diffic": 4822,
      "whether": 4823,
      "tract": 4824,
      "occas": 4825,
      "Co": 4826,
      "fig": 4827,
      "replied": 4828,
      "Fo": 4829,
      "fellow": 4830,
      "rid": 4831,
      "25": 4832,
      "vil": 4833,
      "move": 4834,
      "wenty": 4835,
      "family": 4836,
      "ized": 4837,
      "regard": 4838,
      "except": 4839,
      "understand": 4840,
      "const": 4841,
      "lady": 4842,
      "flu": 4843,
      "appeared": 4844,
      "etimes": 4845,
      "uck": 4846,
      "cot": 4847,
      "gen": 4848,
      "fast": 4849,
      "list": 4850,
      "sold": 4851,
      "grow": 4852,
      "gold": 4853,
      "ending": 4854,
      "sal": 4855,
      "wel": 4856,
      "princi": 4857,
      "vic": 4858,
      "beautiful": 4859,
      "horse": 4860,
      "aid": 4861,
      "har": 4862,
      "pers": 4863,
      "mere": 4864,
      "fear": 4865,
      "fell": 4866,
      "After": 4867,
      "ime": 4868,
      "object": 4869,
      "lost": 4870,
      "answered": 4871,
      "cious": 4872,
      "tra": 4873,
      "why": 4874,
      "behind": 4875,
      "dem": 4876,
      "pract": 4877,
      "hy": 4878,
      "bey": 4879,
      "Ho": 4880,
      "comes": 4881,
      "....": 4882,
      "descri": 4883,
      "gn": 4884,
      "perfect": 4885,
      "io": 4886,
      "wise": 4887,
      "necessary": 4888,
      "fine": 4889,
      "cks": 4890,
      "orig": 4891,
      "kept": 4892,
      "received": 4893,
      "lea": 4894,
      "following": 4895,
      "business": 4896,
      "towards": 4897,
      "truth": 4898,
      "decl": 4899,
      "sor": 4900,
      "utter": 4901,
      "inv": 4902,
      "circ": 4903,
      "ention": 4904,
      "twenty": 4905,
      "ms": 4906,
      "These": 4907,
      "draw": 4908,
      "ording": 4909,
      "ago": 4910,
      "ows": 4911,
      "plan": 4912,
      "ament": 4913,
      "stre": 4914,
      "ham": 4915,
      "akes": 4916,
      "speci": 4917,
      "bers": 4918,
      "Ge": 4919,
      "wild": 4920,
      "mag": 4921,
      "remember": 4922,
      "blood": 4923,
      "quar": 4924,
      "Not": 4925,
      "school": 4926,
      "Li": 4927,
      "ney": 4928,
      "cast": 4929,
      "sequ": 4930,
      "inal": 4931,
      "around": 4932,
      "Char": 4933,
      "rious": 4934,
      "force": 4935,
      "compan": 4936,
      "master": 4937,
      "early": 4938,
      "uc": 4939,
      "ek": 4940,
      "exc": 4941,
      "account": 4942,
      "sight": 4943,
      "Car": 4944,
      "table": 4945,
      "sl": 4946,
      "din": 4947,
      "sort": 4948,
      "Illustration": 4949,
      "Per": 4950,
      "pon": 4951,
      "exist": 4952,
      "cross": 4953,
      "trou": 4954,
      "seems": 4955,
      "pay": 4956,
      "Lond": 4957,
      "river": 4958,
      "prov": 4959,
      "attle": 4960,
      "anged": 4961,
      "treat": 4962,
      "rap": 4963,
      "Cap": 4964,
      "Or": 4965,
      "test": 4966,
      "main": 4967,
      "Sp": 4968,
      "hur": 4969,
      "IL": 4970,
      "cold": 4971,
      "Dr": 4972,
      "post": 4973,
      "London": 4974,
      "sir": 4975,
      "Let": 4976,
      "begin": 4977,
      "really": 4978,
      "else": 4979,
      "24": 4980,
      "bra": 4981,
      "From": 4982,
      "ination": 4983,
      "quick": 4984,
      "past": 4985,
      "bor": 4986,
      "vel": 4987,
      "suffer": 4988,
      "cell": 4989,
      "itions": 4990,
      "30": 4991,
      "returned": 4992,
      "dress": 4993,
      "class": 4994,
      "ledge": 4995,
      "ges": 4996,
      "sem": 4997,
      "iment": 4998,
      "IS": 4999
    },
    "merges": [
      "t h",
      "th e",
      "i n",
      "a n",
      "e r",
      "o n",
      "r e",
      "e n",
      "a t",
      "o u",
      "e d",
      "o f",
      "i s",
      "an d",
      "t o",
      "a s",
      "o r",
      "e s",
      "a r",
      "in g",
      "a l",
      "i t",
      "h e",
      "l e",
      "s t",
      "c h",
      "s e",
      "o m",
      "b e",
      "a d",
      "w h",
      "l y",
      "n o",
      "i on",
      "l l",
      "c e",
      "en t",
      "w i",
      "v e",
      "i m",
      "th at",
      "l d",
      "i d",
      "g h",
      "f or",
      "w as",
      "r o",
      "v er",
      "u t",
      "i r",
      "l i",
      "a m",
      "h is",
      "a y",
      "r i",
      "o w",
      "wi th",
      "t er",
      "a c",
      "u n",
      "- -",
      "al l",
      "i c",
      "y ou",
      "h er",
      "u r",
      "h a",
      "d e",
      "s u",
      "no t",
      "gh t",
      "e t",
      "T he",
      "a b",
      "the r",
      "h ad",
      "a g",
      "a in",
      "l o",
      "w e",
      "u s",
      "a re",
      "c on",
      "m o",
      "wh i",
      "s o",
      "n e",
      "er e",
      "p o",
      "b y",
      "p e",
      "c t",
      "s h",
      "ou ld",
      "m e",
      "on e",
      "f e",
      "k e",
      "es s",
      "i l",
      "f r",
      "ou r",
      "n d",
      "whi ch",
      "c om",
      "ou t",
      "u l",
      "at ion",
      "es t",
      "re s",
      "o d",
      "p er",
      "h im",
      "q u",
      "m an",
      "e x",
      "ha ve",
      "b ut",
      "u p",
      "fr om",
      "a p",
      "t r",
      "i f",
      "s a",
      "t e",
      "m y",
      "ar d",
      "th is",
      "an t",
      "g o",
      "ou s",
      "w ere",
      "p l",
      "s he",
      "ar t",
      "the y",
      "f o",
      "wh o",
      "at e",
      "en d",
      "i ll",
      "d o",
      "c o",
      "in d",
      "no w",
      "p ro",
      "u st",
      "om e",
      ". \"",
      "is t",
      "g e",
      "the ir",
      "on g",
      "er s",
      "as t",
      "w or",
      "am e",
      "the m",
      "is h",
      "ver y",
      "se l",
      "r a",
      "m ent",
      "ou nd",
      "i ght",
      "o p",
      "p r",
      "i g",
      "it y",
      "o k",
      "d er",
      "H e",
      "re d",
      "be en",
      ", \"",
      "b o",
      "u m",
      "a k",
      "o ther",
      "i ve",
      "w ould",
      "ou gh",
      "the re",
      "a u",
      "v en",
      "sa id",
      "th ing",
      "i e",
      "w ay",
      "o l",
      "e m",
      "f a",
      "c i",
      "wi ll",
      "s ome",
      "en ce",
      "ow n",
      "c k",
      "re at",
      "u re",
      "as s",
      "I t",
      "an y",
      "r y",
      "in e",
      "ou n",
      "ab le",
      "a f",
      "it t",
      "T h",
      "t im",
      "wh en",
      "it s",
      "an ce",
      "or t",
      "sel f",
      "ac t",
      "ac k",
      "c l",
      "mo re",
      "e ar",
      "c an",
      "e l",
      "h o",
      "po s",
      "fo re",
      "w o",
      "i es",
      "an s",
      "h as",
      "v ed",
      "a ch",
      "ag e",
      "a ke",
      "p t",
      "p res",
      "p re",
      "in to",
      "d is",
      "b l",
      "her e",
      "t ain",
      "d ay",
      "id e",
      "g r",
      "k now",
      "al ly",
      "wh at",
      "ad e",
      "th an",
      "it e",
      "W h",
      "b er",
      "o ver",
      "e p",
      "I n",
      "f ul",
      "v es",
      "s p",
      "c ould",
      "A nd",
      "p art",
      "b r",
      "g l",
      "re e",
      "ur n",
      "ou ght",
      "tim e",
      "you r",
      "ar y",
      "ro w",
      "ion s",
      "B ut",
      "b le",
      "i re",
      "o t",
      "st r",
      "g reat",
      "at ed",
      "up on",
      "in t",
      "i ce",
      "m en",
      "s i",
      "t y",
      "li ke",
      "M r",
      "the n",
      "u e",
      "mo st",
      "p le",
      "on ly",
      "or d",
      "f er",
      "v ing",
      "p p",
      "an g",
      "ab out",
      "itt le",
      "a ce",
      "f l",
      "af ter",
      "sh ould",
      "o b",
      "se e",
      "h and",
      "f ir",
      "u d",
      "ag ain",
      "for m",
      "l ong",
      "l ittle",
      "o se",
      "d id",
      "e ver",
      "C h",
      "? \"",
      "s pe",
      "t wo",
      "u ch",
      "m ay",
      "m ade",
      "s er",
      "in k",
      "s on",
      "s ay",
      "wh ere",
      "d es",
      "re ad",
      "s to",
      "m on",
      "re t",
      "we ll",
      "c oun",
      "w ard",
      "h ow",
      "lo ok",
      "of f",
      "s c",
      "re n",
      "com e",
      "m ar",
      "-- --",
      "un der",
      "i ous",
      "l a",
      "l ess",
      "be fore",
      "the se",
      "su ch",
      "o ld",
      "n ess",
      "h i",
      "le t",
      "go od",
      "c ame",
      "m ust",
      "is e",
      "a th",
      "W e",
      "at t",
      "ig n",
      "fir st",
      "m uch",
      "1 8",
      "ne w",
      "E R",
      "ar m",
      "d own",
      "ll ow",
      "in ter",
      "t ed",
      "li ght",
      "e very",
      "th r",
      "a ve",
      "be t",
      "ct ion",
      "c es",
      "it ion",
      "k ed",
      "e ven",
      "l and",
      "or n",
      "p s",
      "S t",
      "at er",
      "ri ght",
      "a v",
      "c c",
      "i ld",
      "e f",
      "p ass",
      "y ear",
      "to r",
      "S he",
      "e y",
      "ing s",
      "l ed",
      "t en",
      "ne ver",
      "wor k",
      "! \"",
      "i v",
      "is s",
      "i an",
      ". .",
      "m er",
      "en er",
      "w ent",
      "c ed",
      "i ly",
      "th ose",
      "d u",
      "ic k",
      "c all",
      "man y",
      "be ing",
      "j e",
      "ri ed",
      "c our",
      "ation s",
      "c er",
      "t s",
      "c lo",
      "p ort",
      "thr ough",
      "ou se",
      "m ight",
      "g et",
      "e v",
      "th ink",
      "b ack",
      "as e",
      "con s",
      "f ound",
      "li fe",
      "p h",
      "f t",
      "s m",
      "i ed",
      "he ad",
      "se em",
      "him self",
      "at ter",
      "li c",
      "g i",
      "j ust",
      "Y ou",
      "m in",
      "T his",
      "con t",
      "tr y",
      "ct ed",
      "s s",
      "er ed",
      "wor d",
      "th ough",
      "th ought",
      "sh all",
      "c au",
      "c ar",
      "c r",
      "a ir",
      "ic al",
      "s ame",
      "to o",
      "m ake",
      "The y",
      "T here",
      "w r",
      "T H",
      "en s",
      "n at",
      "pres ent",
      "un d",
      "with out",
      "re g",
      "f ri",
      "n ight",
      "on d",
      "com p",
      "su b",
      "pl ace",
      "res s",
      "l es",
      "l ast",
      "ap pe",
      "u b",
      "g u",
      "d ist",
      "r an",
      "i th",
      "k ing",
      "s ide",
      "whi le",
      "i a",
      "N o",
      "b ro",
      "p ut",
      "be g",
      "i p",
      "i z",
      "com m",
      "ish ed",
      "n g",
      "are d",
      "op le",
      "ar s",
      "se t",
      "un t",
      "st and",
      "ow er",
      "h ouse",
      "t ak",
      "pres s",
      "m ed",
      "v o",
      "te m",
      "w om",
      "d en",
      "st ill",
      "d if",
      "c ess",
      "k s",
      "c ent",
      "cau se",
      "te ll",
      "E n",
      "s ur",
      "a way",
      "t ake",
      "co l",
      "0 0",
      "t urn",
      "pe ople",
      "i al",
      "l t",
      "c le",
      "or s",
      "li e",
      "re m",
      "fri end",
      "n er",
      "en ed",
      "u ll",
      "al so",
      "p ri",
      "ch ar",
      "n or",
      "je ct",
      "fo llow",
      "a w",
      "l ar",
      "po int",
      "at es",
      "fa ce",
      "p ar",
      "b re",
      "us ed",
      "i le",
      "j o",
      "you ng",
      "R E",
      "v al",
      "u se",
      "he art",
      "ch ild",
      "th ree",
      "way s",
      "it ed",
      "fe ct",
      "year s",
      "in ce",
      "A L",
      "f ar",
      "ey es",
      "T ER",
      "re as",
      "I f",
      ". ,",
      "ch o",
      "b u",
      "ter s",
      "c ap",
      "ad d",
      "g ener",
      "G od",
      "for t",
      "f ic",
      "A n",
      "Wh at",
      "ro om",
      "y et",
      "A s",
      "En gl",
      "f in",
      "v is",
      "H is",
      "ne ar",
      "o cc",
      "b od",
      "b ed",
      "n ing",
      "an other",
      "h al",
      "O N",
      "ce pt",
      "me m",
      "con d",
      "again st",
      "le ft",
      "on ce",
      "l ow",
      "st e",
      "k ind",
      "g ive",
      "ent ly",
      "en g",
      "L E",
      "ver s",
      "I I",
      "T o",
      "ul ar",
      "hi gh",
      "t on",
      "as h",
      "A N",
      "ment s",
      "ar k",
      "we en",
      "cer tain",
      "lo ve",
      "go t",
      "e ach",
      "ul t",
      "p a",
      "c y",
      "m ind",
      "f ind",
      "Wh en",
      "I N",
      "no thing",
      "p ed",
      "ent s",
      "ha pp",
      "t ing",
      "fe w",
      "str u",
      "p ur",
      "c he",
      "A r",
      "a ut",
      "F or",
      "re st",
      "fa ther",
      "A t",
      "wor ld",
      "w ant",
      "t ri",
      "to ok",
      "a il",
      "w ater",
      "bet ween",
      "Th at",
      "au gh",
      "l s",
      "call ed",
      "d on",
      "in s",
      "y s",
      "g ed",
      "re p",
      "1 7",
      "Th en",
      "so l",
      "at ch",
      "f act",
      "an ge",
      "per son",
      "J o",
      "O n",
      "sa w",
      "v ent",
      "r u",
      "n ame",
      "u res",
      "t al",
      "S o",
      "s ent",
      "w n",
      "TH E",
      "or der",
      "al ways",
      "on s",
      "ser v",
      "w ar",
      "qu i",
      "en e",
      "ret urn",
      "al s",
      "thing s",
      "i ther",
      "ac c",
      "coun try",
      "qu est",
      "us h",
      "m om",
      "hal f",
      "i er",
      "c are",
      "co ver",
      "c u",
      "e w",
      "b it",
      "read y",
      ". ”",
      "f am",
      "se en",
      "who le",
      "fe el",
      "am ong",
      "cour se",
      "pos si",
      "sm all",
      "n um",
      "m a",
      "is ed",
      "bod y",
      "s y",
      "M ar",
      "B e",
      "F r",
      "at ing",
      "ro ss",
      "S e",
      "s k",
      "r ound",
      "po se",
      "Mr s",
      "row n",
      "ha ving",
      "in ess",
      "w on",
      "l ad",
      "end ed",
      "w a",
      "so on",
      "sel ves",
      "bo th",
      "re w",
      "s po",
      "h ome",
      "th y",
      "ans w",
      "ward s",
      "1 6",
      "s at",
      "ak ing",
      "wh om",
      "ur ing",
      "as ter",
      "ple as",
      "be cause",
      "mo ther",
      "su re",
      "c or",
      "d one",
      "s ou",
      "v i",
      "ex t",
      "per i",
      "sh ip",
      "he l",
      "al e",
      "v ol",
      "sh ow",
      "cons id",
      "pe ct",
      "1 5",
      "day s",
      "to ry",
      "look ed",
      "p ower",
      "f our",
      "c ut",
      "h our",
      ") ,",
      "c al",
      "c a",
      "f re",
      "it ies",
      "Ch r",
      "to ld",
      "wom an",
      "mom ent",
      "he ard",
      "B r",
      "w ind",
      "s il",
      "ho ld",
      "g g",
      "ant s",
      "d r",
      "seem ed",
      "go ing",
      "g ir",
      ", --",
      "lar ge",
      "ain ed",
      "l ay",
      "c ri",
      "u al",
      "P r",
      "re l",
      "h ard",
      "su f",
      "h or",
      "how ever",
      "d ou",
      "ch es",
      "1 0",
      "b ar",
      "C H",
      "la w",
      "bet ter",
      "m atter",
      "o s",
      "as ked",
      "ce i",
      ". '",
      "su p",
      "in de",
      "A l",
      "be lie",
      "ag es",
      "inter est",
      "tak en",
      "s im",
      "ge ther",
      "sp ir",
      "ab ly",
      "gi ven",
      ". --",
      "in c",
      "ate ly",
      "pl ay",
      "to gether",
      "know n",
      "in st",
      "ap p",
      "1 2",
      "li ed",
      "su m",
      "ful ly",
      "o ve",
      "d ra",
      "e le",
      "s ing",
      "word s",
      "pl ac",
      "ic t",
      "ie ld",
      "A R",
      "hand s",
      "n ed",
      "L ord",
      "Chr ist",
      "fa ir",
      "en ough",
      "on t",
      "al most",
      "dif fer",
      "k new",
      "cont in",
      "qu ite",
      "do es",
      "x t",
      "ad v",
      "et y",
      "th or",
      "pos ed",
      "se ver",
      "i i",
      "op en",
      "1 9",
      "con f",
      "R e",
      "be aut",
      "a im",
      "th us",
      "or y",
      "un g",
      "---- ----",
      "do or",
      "y e",
      "es e",
      "h u",
      "in ed",
      "m il",
      "b est",
      "h n",
      "s ha",
      "p ain",
      "ust r",
      "l ing",
      "H ow",
      "R o",
      "unt il",
      "ce ed",
      "f all",
      "c ur",
      "g ave",
      "pos ition",
      "z e",
      "bo ok",
      "ir d",
      "some thing",
      "d i",
      "sh o",
      "i gh",
      "d ire",
      "ur ch",
      "g ent",
      "D e",
      ". ]",
      "an ces",
      ", ”",
      "le y",
      "a ther",
      "b us",
      "ke ep",
      "is on",
      "m orn",
      "b ur",
      "ut e",
      "br ought",
      "am p",
      "who se",
      "de ath",
      "ha ps",
      "b es",
      "possi ble",
      "s en",
      "f ull",
      "E N",
      "g ra",
      "ch ed",
      "re ach",
      "re am",
      "M iss",
      "U n",
      "an k",
      "Jo hn",
      "other s",
      "id ent",
      "h on",
      "qu e",
      "tr u",
      "wh ite",
      "M y",
      "pr om",
      "them selves",
      "ne cess",
      "it u",
      "v ar",
      "1 4",
      "b lo",
      "B o",
      "ne ed",
      "morn ing",
      "c ase",
      "re al",
      "w he",
      "m et",
      "w al",
      "l it",
      "er y",
      "me an",
      "ie f",
      "A ll",
      "O R",
      "ar ing",
      "c ir",
      "1 3",
      "k en",
      "I nd",
      "id ed",
      "gr ound",
      "of ten",
      "if ic",
      "can not",
      "po or",
      "char ac",
      "und red",
      "i x",
      "fe et",
      "C on",
      "wo od",
      "ou d",
      "t ill",
      "turn ed",
      "ie w",
      "pl ain",
      "one y",
      "ro ad",
      "AL L",
      "e as",
      "dou b",
      "id es",
      "g y",
      "g re",
      "ra ther",
      "s un",
      "reas on",
      "as k",
      "O h",
      "H er",
      "st ate",
      "h undred",
      "in es",
      "s ince",
      "m is",
      "f ire",
      "i ans",
      ", '",
      "ne xt",
      "is ter",
      "LE T",
      "to wn",
      "et s",
      "str ong",
      "RE E",
      "C om",
      "d ark",
      "to m",
      "S ir",
      "pro du",
      "W ith",
      "D o",
      "L e",
      "O f",
      "fe lt",
      "Engl ish",
      "re f",
      "is m",
      "ab ove",
      "N ew",
      "beg an",
      "i red",
      "si x",
      "u g",
      "tr ue",
      "cei ved",
      "ub lic",
      "ang er",
      "s we",
      "le g",
      "K ing",
      "r un",
      "consid er",
      "cl aim",
      "pass ed",
      "B y",
      "ad m",
      "S M",
      "say s",
      "LET TER",
      "v iew",
      "so ci",
      "coun t",
      "l augh",
      "li g",
      "at ive",
      "I s",
      "my self",
      "wi fe",
      "{ ~",
      "~ }",
      "N or",
      "ut ion",
      "N ow",
      "sto od",
      "st er",
      "vo ice",
      "st ri",
      "i ent",
      "G REE",
      "ou th",
      "se cond",
      "child ren",
      "it ing",
      "mem ber",
      "le ct",
      "pp ed",
      "off ic",
      "We ll",
      "GREE K",
      "appe ar",
      "sub ject",
      "spe ak",
      "il ed",
      "tr ans",
      "al ong",
      "p at",
      "sh ort",
      "ex press",
      "P o",
      "he ld",
      "c ity",
      "Y es",
      "charac ter",
      "an n",
      "l ine",
      "gir l",
      "b and",
      "ar ch",
      "me ans",
      ") .",
      "bo y",
      "c tor",
      "all ow",
      "f ive",
      "a h",
      "s ign",
      "contin u",
      "SM ALL",
      "p en",
      "ho pe",
      "S T",
      "gener al",
      "s ess",
      "A mer",
      "p lo",
      "f ac",
      "if ul",
      "su cc",
      "m oney",
      "pr in",
      "am es",
      "ch ief",
      "im es",
      "su pp",
      "e ither",
      "a z",
      "ren ch",
      "m or",
      "A P",
      "tem pt",
      "de ar",
      "d uring",
      "O F",
      "num ber",
      "quest ion",
      "tim es",
      "M o",
      "com ing",
      "m oun",
      "Amer ic",
      "clo se",
      "gent le",
      "i ch",
      "se c",
      "d iv",
      "le ar",
      "doub t",
      "il ity",
      "belie ve",
      "with in",
      "her self",
      "d est",
      "c us",
      "I ll",
      "de c",
      "O ne",
      "per haps",
      "an e",
      "le ad",
      "d ri",
      "d om",
      "pre t",
      "P ar",
      "un e",
      "C ol",
      "f f",
      "he ar",
      "a ven",
      "ur al",
      "any thing",
      "f ur",
      "j ud",
      "h ind",
      "s ed",
      "me et",
      "w ish",
      "ill ed",
      "pro per",
      "bl ack",
      "le ast",
      "mar k",
      "cover ed",
      "hu man",
      "P ro",
      "G er",
      "nat ure",
      "it self",
      "im port",
      "ar ri",
      "succ ess",
      "st ep",
      "ard s",
      "al one",
      "g one",
      "ap pro",
      "d den",
      "ous and",
      "pr of",
      "s om",
      "G o",
      "ef fect",
      "won der",
      "sever al",
      "s le",
      "inde ed",
      "y ed",
      "m iss",
      "Engl and",
      "pos sess",
      "al ready",
      "de ep",
      "tain ed",
      "W ill",
      "on es",
      "se a",
      "p al",
      "itt ed",
      "look ing",
      "th ousand",
      "b ri",
      "not e",
      "ear th",
      "bro ther",
      "2 0",
      "there fore",
      "ag ed",
      "F rench",
      "i li",
      "su dden",
      "qu al",
      "de ad",
      "st art",
      "au thor",
      "wom en",
      "p ublic",
      "u su",
      "cho ol",
      "li ve",
      "d ro",
      "comm and",
      "mo t",
      "ist s",
      "r is",
      "form ed",
      "rem ain",
      "c ried",
      "f ield",
      "u red",
      "s pr",
      "th ou",
      "for d",
      "com ple",
      "w atch",
      "arm s",
      "let ter",
      "pro b",
      "are n",
      "an im",
      "Wh y",
      "M a",
      "spir it",
      "res pect",
      "at ure",
      "at s",
      "Ill ustr",
      "m id",
      "com mon",
      "man ner",
      "A f",
      "fa v",
      "differ ent",
      "le ave",
      "i ble",
      "go ver",
      "cle ar",
      "p ie",
      "ur y",
      "m us",
      "A T",
      "st ud",
      "be came",
      "ent er",
      "s ound",
      "ll ed",
      "re su",
      "med i",
      "f ree",
      "g er",
      "ri es",
      "w all",
      "th s",
      "friend s",
      "~} {~",
      "ain t",
      "be come",
      "ex am",
      "f lo",
      "y ing",
      "P e",
      "hel p",
      "ste ad",
      "E S",
      "id ence",
      "n ment",
      "m aking",
      "p or",
      "g ar",
      "ter n",
      "fo ot",
      "part ic",
      "br ing",
      "dif fic",
      "whe ther",
      "tr act",
      "occ as",
      "C o",
      "f ig",
      "rep lied",
      "F o",
      "fe llow",
      "r id",
      "2 5",
      "v il",
      "mo ve",
      "went y",
      "fam ily",
      "iz ed",
      "reg ard",
      "ex cept",
      "under stand",
      "con st",
      "lad y",
      "fl u",
      "appe ared",
      "et imes",
      "u ck",
      "co t",
      "g en",
      "f ast",
      "l ist",
      "so ld",
      "g row",
      "go ld",
      "end ing",
      "s al",
      "we l",
      "prin ci",
      "v ic",
      "beaut iful",
      "hor se",
      "a id",
      "h ar",
      "per s",
      "m ere",
      "fe ar",
      "fe ll",
      "Af ter",
      "im e",
      "ob ject",
      "lo st",
      "answ ered",
      "ci ous",
      "tr a",
      "wh y",
      "be hind",
      "de m",
      "pr act",
      "h y",
      "be y",
      "H o",
      "com es",
      ".. ..",
      "des cri",
      "g n",
      "per fect",
      "i o",
      "w ise",
      "necess ary",
      "f ine",
      "ck s",
      "or ig",
      "ke pt",
      "re ceived",
      "le a",
      "follow ing",
      "bus iness",
      "to wards",
      "tru th",
      "de cl",
      "s or",
      "ut ter",
      "in v",
      "cir c",
      "ent ion",
      "t wenty",
      "m s",
      "Th ese",
      "dra w",
      "ord ing",
      "ag o",
      "ow s",
      "pl an",
      "am ent",
      "st re",
      "h am",
      "ak es",
      "spe ci",
      "b ers",
      "G e",
      "wi ld",
      "m ag",
      "re member",
      "blo od",
      "qu ar",
      "N ot",
      "s chool",
      "L i",
      "ne y",
      "c ast",
      "se qu",
      "in al",
      "ar ound",
      "Ch ar",
      "ri ous",
      "for ce",
      "comp an",
      "m aster",
      "ear ly",
      "u c",
      "e k",
      "ex c",
      "ac count",
      "s ight",
      "C ar",
      "t able",
      "s l",
      "d in",
      "s ort",
      "Illustr ation",
      "P er",
      "p on",
      "ex ist",
      "c ross",
      "tr ou",
      "seem s",
      "p ay",
      "L ond",
      "ri ver",
      "pro v",
      "att le",
      "ang ed",
      "t reat",
      "r ap",
      "C ap",
      "O r",
      "t est",
      "m ain",
      "S p",
      "h ur",
      "I L",
      "co ld",
      "D r",
      "po st",
      "Lond on",
      "s ir",
      "L et",
      "beg in",
      "re ally",
      "el se",
      "2 4",
      "b ra",
      "Fr om",
      "in ation",
      "qu ick",
      "p ast",
      "b or",
      "ve l",
      "suf fer",
      "ce ll",
      "it ions",
      "3 0",
      "return ed",
      "d ress",
      "cl ass",
      "led ge",
      "g es",
      "se m",
      "im ent",
      "I S"
    ]
  }
}